{"<PAD>":0,"<BOS>":1,"<EOS>":2,"<UNK>":3,"!":4,"\"":5,"#":6,"$":7,"%":8,"&":9,"'":10,"(":11,")":12,"*":13,"+":14,",":15,"-":16,".":17,"/":18,"0":19,"1":20,"2":21,"3":22,"4":23,"5":24,"6":25,"7":26,"8":27,"9":28,":":29,";":30,"<":31,"=":32,">":33,"?":34,"@":35,"A":36,"B":37,"C":38,"D":39,"E":40,"F":41,"G":42,"H":43,"I":44,"J":45,"K":46,"L":47,"M":48,"N":49,"O":50,"P":51,"Q":52,"R":53,"S":54,"T":55,"U":56,"V":57,"W":58,"X":59,"Y":60,"Z":61,"[":62,"\\":63,"]":64,"^":65,"_":66,"`":67,"a":68,"b":69,"c":70,"d":71,"e":72,"f":73,"g":74,"h":75,"i":76,"j":77,"k":78,"l":79,"m":80,"n":81,"o":82,"p":83,"q":84,"r":85,"s":86,"t":87,"u":88,"v":89,"w":90,"x":91,"y":92,"z":93,"{":94,"|":95,"}":96,"~":97,"¡":98,"¢":99,"£":100,"¤":101,"¥":102,"¦":103,"§":104,"¨":105,"©":106,"ª":107,"«":108,"¬":109,"®":110,"¯":111,"°":112,"±":113,"²":114,"³":115,"´":116,"µ":117,"¶":118,"·":119,"¸":120,"¹":121,"º":122,"»":123,"¼":124,"½":125,"¾":126,"¿":127,"À":128,"Á":129,"Â":130,"Ã":131,"Ä":132,"Å":133,"Æ":134,"Ç":135,"È":136,"É":137,"Ê":138,"Ë":139,"Ì":140,"Í":141,"Î":142,"Ï":143,"Ð":144,"Ñ":145,"Ò":146,"Ó":147,"Ô":148,"Õ":149,"Ö":150,"×":151,"Ø":152,"Ù":153,"Ú":154,"Û":155,"Ü":156,"Ý":157,"Þ":158,"ß":159,"à":160,"á":161,"â":162,"ã":163,"ä":164,"å":165,"æ":166,"ç":167,"è":168,"é":169,"ê":170,"ë":171,"ì":172,"í":173,"î":174,"ï":175,"ð":176,"ñ":177,"ò":178,"ó":179,"ô":180,"õ":181,"ö":182,"÷":183,"ø":184,"ù":185,"ú":186,"û":187,"ü":188,"ý":189,"þ":190,"ÿ":191,"Ā":192,"ā":193,"Ă":194,"ă":195,"Ą":196,"ą":197,"Ć":198,"ć":199,"Ĉ":200,"ĉ":201,"Ċ":202,"ċ":203,"Č":204,"č":205,"Ď":206,"ď":207,"Đ":208,"đ":209,"Ē":210,"ē":211,"Ĕ":212,"ĕ":213,"Ė":214,"ė":215,"Ę":216,"ę":217,"Ě":218,"ě":219,"Ĝ":220,"ĝ":221,"Ğ":222,"ğ":223,"Ġ":224,"ġ":225,"Ģ":226,"ģ":227,"Ĥ":228,"ĥ":229,"Ħ":230,"ħ":231,"Ĩ":232,"ĩ":233,"Ī":234,"ī":235,"Ĭ":236,"ĭ":237,"Į":238,"į":239,"İ":240,"ı":241,"Ĳ":242,"ĳ":243,"Ĵ":244,"ĵ":245,"Ķ":246,"ķ":247,"ĸ":248,"Ĺ":249,"ĺ":250,"Ļ":251,"ļ":252,"Ľ":253,"ľ":254,"Ŀ":255,"ŀ":256,"Ł":257,"ł":258,"Ń":259,"Ġt":260,"he":261,"Ġa":262,"in":263,"Ġthe":264,"er":265,"on":266,"Ġ,":267,"re":268,"Ġs":269,"ed":270,"Ġw":271,"Ġo":272,"nd":273,"at":274,"Ġ.":275,"or":276,"en":277,"Ġc":278,"it":279,"Ġf":280,"is":281,"es":282,"ar":283,"Ġb":284,"Ġof":285,"an":286,"Ġin":287,"al":288,"ing":289,"Ġp":290,"as":291,"Ġand":292,"Ġto":293,"ic":294,"ro":295,"Ġm":296,"Ġd":297,"Ġh":298,"ion":299,"le":300,"ou":301,"ĠT":302,"Ġre":303,"Ġ=":304,"ĠS":305,"il":306,"ĠA":307,"ent":308,"Ġ\"":309,"Ġ1":310,"Ġth":311,"st":312,"el":313,"ĠC":314,"Ġl":315,"Ġ@":316,"om":317,"Ġe":318,"ĠĊ":319,"am":320,"Ġn":321,"ad":322,"ac":323,"Ġwas":324,"ĠM":325,"ĠB":326,"ec":327,"Ġon":328,"ĠThe":329,"ly":330,"ur":331,"Ġ'":332,"et":333,"id":334,"ol":335,"Ġg":336,"im":337,"ĠI":338,"-@":339,"Ġ@-@":340,"Ġfor":341,"ir":342,"ig":343,"iv":344,"ot":345,"ter":346,"ĠH":347,"ut":348,"Ġas":349,"us":350,"ow":351,"ith":352,"ay":353,"Ġ2":354,"ĠP":355,"Ġst":356,"Ġhe":357,"ver":358,"ation":359,"Ġwith":360,"Ġbe":361,"ĠR":362,"Ġthat":363,"ĠD":364,"ce":365,"un":366,"em":367,"ĠW":368,"Ġwh":369,"ĠF":370,"ch":371,"Ġby":372,"th":373,"Ġal":374,"Ġ)":375,"Ġ(":376,"ĠL":377,"ul":378,"ĠG":379,"Ġis":380,"Ġcon":381,"ers":382,"Ġat":383,"ct":384,"ĠN":385,"ra":386,"os":387,"Ġ19":388,"Ġan":389,"Ġit":390,"her":391,"rom":392,"and":393,"um":394,"ĠJ":395,"est":396,"00":397,"Ġhis":398,"ĠE":399,"ag":400,"av":401,"ain":402,"ri":403,"od":404,"Ġfrom":405,"ĠO":406,"ist":407,"Ġcom":408,"Ġv":409,"Ġpro":410,"op":411,"ill":412,"ore":413,"if":414,"ld":415,"up":416,"Ġr":417,"ew":418,"ere":419,"res":420,"igh":421,"ĠIn":422,"ies":423,"Ġde":424,"ber":425,"art":426,"ard":427,"ort":428,"Ġse":429,"ich":430,"Ġwere":431,"ate":432,"all":433,"ak":434,"ant":435,"oc":436,"ud":437,"ap":438,"Ġex":439,"qu":440,"ong":441,"ab":442,"Ġch":443,"Ġor":444,"ĠK":445,"gh":446,"ear":447,"ess":448,"ated":449,"Ġpl":450,"Ġsh":451,"ity":452,"ip":453,"ive":454,"ame":455,"ĠU":456,"Ġâ":457,"Ġhad":458,"ect":459,"ack":460,"ĠSt":461,"ĠâĢ":462,"Ġsu":463,"ast":464,"se":465,"red":466,"Ġk":467,"ge":468,"Ġwhich":469,"our":470,"ment":471,"Ġle":472,"und":473,"Ġare":474,"ov":475,"ian":476,"ial":477,"Ġnot":478,"ell":479,"Ġsp":480,"ost":481,"Ġy":482,"ight":483,"ia":484,"ord":485,"ust":486,"ary":487,"ine":488,"ther":489,"pt":490,"rit":491,"Ġ3":492,"oun":493,"pp":494,"ical":495,"ĠCh":496,"ave":497,"Ġun":498,"Ġ200":499,"cc":500,"Ġinc":501,"fter":502,"ould":503,"ĠV":504,"Ġbut":505,"irst":506,"ish":507,"ous":508,"te":509,"ff":510,"ions":511,"so":512,"Ġcomp":513,"Ġ20":514,"ide":515,"Ġro":516,"ure":517,"Ġwhe":518,"ub":519,"Ġar":520,"Ġcont":521,"ie":522,"Ġ;":523,"og":524,"ign":525,"Ġfirst":526,"Ġcl":527,"wo":528,"Ġher":529,"ry":530,"ue":531,"Ġits":532,"ass":533,"Ġtheir":534,"orm":535,"ĠâĢĵ":536,"ok":537,"ork":538,"Ġint":539,"Ġres":540,"ĠHe":541,"Ġ:":542,"ater":543,"Ġalso":544,"Ġab":545,"ond":546,"Ġad":547,"ome":548,"out":549,"ran":550,"mer":551,"ire":552,"hed":553,"ru":554,"Ġus":555,"age":556,"du":557,"Ġ4":558,"ime":559,"low":560,"Ġper":561,"per":562,"Ġwho":563,"Ġ5":564,"ĠTh":565,"Ġone":566,"Ġhave":567,"Ġsc":568,"pl":569,"ally":570,"own":571,"ile":572,"Ġrec":573,"Ġ18":574,"ted":575,".@":576,"Ġ@.@":577,"Ġtwo":578,"ition":579,"ugh":580,"iz":581,"ree":582,"ence":583,"ts":584,"uring":585,"port":586,"Ġbeen":587,"Ġpart":588,"Ġbec":589,"ice":590,"Ġhas":591,"ĠAl":592,"Ġag":593,"Ġapp":594,"Ġ201":595,"ough":596,",@":597,"Ġ@,@":598,"Ġj":599,"Ġen":600,"Ġdis":601,"lud":602,"ke":603,"Ġover":604,"Ġser":605,"Ġthis":606,"ory":607,"ely":608,"Ġyear":609,"ations":610,"ember":611,"ren":612,"ction":613,"ound":614,"ach":615,"Ġoff":616,"Ġafter":617,"ric":618,"Ġup":619,"land":620,"Ġplay":621,"Ġdes":622,"ace":623,"ĠIt":624,"ark":625,"over":626,"ance":627,"Ġout":628,"Ġthey":629,"Ġman":630,"ade":631,"Ġte":632,"act":633,"Ġother":634,"ib":635,"man":636,"ult":637,"Ġim":638,"ĠY":639,"ph":640,"ress":641,"Ġinclud":642,"ced":643,"ens":644,"urn":645,"wn":646,"Ġwould":647,"ind":648,"Ġtime":649,"one":650,"Ġpre":651,"Ġinto":652,"vel":653,"ĠOn":654,"ĠUn":655,"ward":656,"we":657,"Ġwe":658,"Ġhim":659,"ite":660,"oin":661,"ates":662,"Ġ6":663,"Ġshe":664,"les":665,"Ġev":666,"ilm":667,"Ġatt":668,"ased":669,"Ġne":670,"ited":671,"able":672,"end":673,"ied":674,"ase":675,"amp":676,"Ġcomm":677,"ors":678,"Ġinter":679,"are":680,"rough":681,"oy":682,"ons":683,"ount":684,"ep":685,"form":686,"Ġall":687,"ose":688,"ood":689,"ang":690,"Ġmore":691,"ces":692,"Ġwork":693,"Ġ7":694,"ail":695,"old":696,"aw":697,"ered":698,"ings":699,"ve":700,"ild":701,"ĠAn":702,"Ġnew":703,"Ġsec":704,"Ġbet":705,"Ġwhen":706,"inal":707,"Ġfe":708,"Ġfilm":709,"ick":710,"vi":711,"ents":712,"ĠSe":713,"way":714,"att":715,"ft":716,"iss":717,"aus":718,"fer":719,"Ġ8":720,"gan":721,"ĠMar":722,"reat":723,"rib":724,"Ġcons":725,"ĠAr":726,"round":727,"ake":728,"Ġrem":729,"ved":730,"Ġtr":731,"Ġdec":732,"ason":733,"ans":734,"Ġduring":735,"Ġund":736,"orth":737,"ubl":738,"Ġ9":739,"hip":740,"Ġagain":741,"ĠAs":742,"Ġmost":743,"Ġgame":744,"oth":745,"Ġthem":746,"Ġ199":747,"Ġonly":748,"Ġpr":749,"ath":750,"ween":751,"ix":752,"Ġear":753,"ollow":754,"Ġthan":755,"ob":756,"rop":757,"Ġsup":758,"ational":759,"fore":760,"ĠNew":761,"Ġabout":762,"Ġprodu":763,"ug":764,"Ġcent":765,"tern":766,"Ġkn":767,"Ġret":768,"ey":769,"Ġchar":770,"Ġsong":771,"Ġcan":772,"outh":773,"Ġbetween":774,"Ġlater":775,"orn":776,"Ġrele":777,"Ġunder":778,"ict":779,"Ġthree":780,"hn":781,"ton":782,"Ġcol":783,"ron":784,"Ġact":785,"Ġ00":786,"als":787,"Ġqu":788,"Ġthrough":789,"ĠEn":790,"orld":791,"ook":792,"Ġnum":793,"Ġso":794,"Ġme":795,"Ġacc":796,"Ġrel":797,"Ġwhile":798,"Ġra":799,"Ġend":800,"meric":801,"ĠLe":802,"lect":803,"ĠAmeric":804,"Ġfl":805,"ters":806,"ock":807,"Ġpos":808,"ral":809,"Ġsub":810,"ever":811,"ular":812,"Ġass":813,"ating":814,"Ġwhere":815,"Ġver":816,"Ġday":817,"ck":818,"Ġreg":819,"Ġsecond":820,"ener":821,"aid":822,"Ġbu":823,"ĠCom":824,"Ġmade":825,"ames":826,"ision":827,"ived":828,"ĠRe":829,"Ġpe":830,"hes":831,"Ġrecord":832,"son":833,"Ġdef":834,"bum":835,"Ġfour":836,"Ġgro":837,"Ġfollow":838,"Ġseason":839,"Ġ000":840,"Ġep":841,"Ġform":842,"Ġsome":843,"Ġsuch":844,"Ġam":845,"ool":846,"ished":847,"Ġmov":848,"Ġbefore":849,"Ġtra":850,"Ġmus":851,"ĠSp":852,"Ġthere":853,"Ġwrit":854,"hen":855,"ics":856,"ĠJo":857,"io":858,"Ġspec":859,"iel":860,"Ġ10":861,"ike":862,"Ġsy":863,"Ġyears":864,"Ġteam":865,"ĠAt":866,"ode":867,"ual":868,"ĠThis":869,"ident":870,"Ġ/":871,"Ġlar":872,"Ġalbum":873,"ĠSh":874,"Ġind":875,"ros":876,"ily":877,"owever":878,"Ġent":879,"ning":880,"Ġused":881,"Ġcall":882,"ank":883,"Ġsur":884,"ific":885,"Ġac":886,"Ġhigh":887,"ury":888,"Ġpubl":889,"Ġbeing":890,"Ġepis":891,"ained":892,"Ġthen":893,"led":894,"ten":895,"velop":896,"aj":897,"Ġdo":898,"Ġloc":899,"Ġexp":900,"ife":901,"ris":902,"Ġ17":903,"Ġagainst":904,"Ġinv":905,"Ġ0":906,"Ġbl":907,"Ġpres":908,"Ġshow":909,"other":910,"Ġnumber":911,"ĠAfter":912,"Ġcharac":913,"ious":914,"Ġsever":915,"Ġadd":916,"Ġco":917,"Ġset":918,"ek":919,"ince":920,"ject":921,"ars":922,"Ġbecame":923,"Ġrece":924,"ĠBrit":925,"ause":926,"Ġlead":927,"Ġperform":928,"Ġno":929,"Ġincluding":930,"Ġsing":931,"ather":932,"ins":933,"ĠâĢĶ":934,"ines":935,"Ġfound":936,"ĠUnited":937,"rans":938,"air":939,"Ġwell":940,"ale":941,"Ġmon":942,"Ġrep":943,"ĠSc":944,"Ġpol":945,"Ġback":946,"Ġboth":947,"ier":948,"Ġcap":949,"Ġ198":950,"Ġseries":951,"Ġ15":952,"Ġ12":953,"ober":954,"ram":955,"ĠCon":956,"ik":957,"ower":958,"Ġship":959,"ement":960,"its":961,"ert":962,"ired":963,"ures":964,"ley":965,"ĠWh":966,"ĠShe":967,"ivers":968,"Ġmain":969,"pen":970,"Ġ194":971,"Ġmin":972,"iet":973,"der":974,"overn":975,"Ġdid":976,"ven":977,"Ġgo":978,"Ġcre":979,"elf":980,"olog":981,"Ġimp":982,"Ġdevelop":983,"Ġmet":984,"az":985,"ities":986,"ĠEng":987,"Ġlong":988,"iver":989,"any":990,"ll":991,"ised":992,"erm":993,"ting":994,"uch":995,"ared":996,"ann":997,"ane":998,"ird":999,"Ġem":1000,"ĠJohn":1001,"Ġmill":1002,"ful":1003,"Ġair":1004,"Ġmat":1005,"Ġepisode":1006,"tend":1007,"irect":1008,"Ġsaid":1009,"Ġstud":1010,"Ġmany":1011,"ute":1012,"Ġbro":1013,"ash":1014,"ative":1015,"Ġdep":1016,"Ġcar":1017,"Ġ16":1018,"Ġcould":1019,"Ġorig":1020,"Ġwar":1021,"Ġcontin":1022,"ĠCl":1023,"Ġseveral":1024,"ĠAmerican":1025,"though":1026,"Ġdif":1027,"ĠInd":1028,"ield":1029,"ah":1030,"Ġinst":1031,"Ġpop":1032,"ouse":1033,"ise":1034,"emb":1035,"Ġknown":1036,"Ġ197":1037,"ty":1038,"ually":1039,"Ġ196":1040,"ĠAust":1041,"Ġ11":1042,"Ġconc":1043,"til":1044,"iam":1045,"ĠWar":1046,"view":1047,"erson":1048,"Ġob":1049,"ued":1050,"ĠGer":1051,"Ġsm":1052,"Ġreturn":1053,"Ġany":1054,"Ġbegan":1055,"ĠZ":1056,"ern":1057,"Ġcomple":1058,"Ġdesign":1059,"ĠDe":1060,"Ġdesc":1061,"Ġsign":1062,"ople":1063,"chool":1064,"ross":1065,"my":1066,"ism":1067,"oot":1068,"Ġest":1069,"Ġtrans":1070,"ccess":1071,"Ġprov":1072,"aking":1073,"Ġfeat":1074,"ĠBl":1075,"ided":1076,"Ġinf":1077,"anc":1078,"Ġrun":1079,"Ġearly":1080,"Ġart":1081,"ized":1082,"Ġdist":1083,"Ġmusic":1084,"Ġown":1085,"Ġnear":1086,"Ġreleased":1087,"Ġuntil":1088,"Ġcalled":1089,"Ġeff":1090,"ĠCol":1091,"imes":1092,"ĠUS":1093,"rid":1094,"ists":1095,"Ġresp":1096,"une":1097,"Ġbel":1098,"enn":1099,"Ġpass":1100,"stem":1101,"ured":1102,"Ġfin":1103,"ially":1104,"ĠMay":1105,"Ġph":1106,"ution":1107,"Ġdown":1108,"Ġdisc":1109,"ments":1110,"Ġcrit":1111,"osed":1112,"xt":1113,"Ġdirect":1114,"Ġgener":1115,"Ġalong":1116,"ium":1117,"Ġins":1118,"Ġmillion":1119,"ger":1120,"ull":1121,"ĠBritish":1122,"ax":1123,"Ġgroup":1124,"Ġoffic":1125,"vent":1126,"ĠGerman":1127,"Ġ13":1128,"Ġfam":1129,"eb":1130,"Ġthese":1131,"ajor":1132,"Ġmod":1133,"Ġmay":1134,"Ġ$":1135,"cept":1136,"ĠAd":1137,"Ġopen":1138,"ange":1139,"Ġmil":1140,"ĠBe":1141,"Ġpoin":1142,"uc":1143,"gg":1144,"Ġland":1145,"Ġsim":1146,"Ġhist":1147,"ĠAug":1148,"Ġgovern":1149,"Ã©":1150,"ĠSept":1151,"Ġsuccess":1152,"ĠSeptember":1153,"ĠAugust":1154,"ets":1155,"ĠAp":1156,"ĠWorld":1157,"ĠStates":1158,"ible":1159,"ink":1160,"erv":1161,"Ġgu":1162,"Ġoper":1163,"Ġcount":1164,"Ġattack":1165,"Ġuse":1166,"Ġsame":1167,"ys":1168,"wards":1169,"Ġdescrib":1170,"Ġpeople":1171,"ĠIs":1172,"ĠFor":1173,"aced":1174,"Ġcharacter":1175,"yp":1176,"amed":1177,"Ġbecause":1178,"ĠAll":1179,"els":1180,"Ġvi":1181,"Ġ14":1182,"Ġlike":1183,"Ġserv":1184,"ĠJu":1185,"ĠFran":1186,"ged":1187,"Ġaround":1188,"Ġstart":1189,"Ġthough":1190,"Ġed":1191,"Ġ195":1192,"ĠPl":1193,"ĠQ":1194,"ner":1195,"Ġwin":1196,"Ġkm":1197,"Ġconst":1198,"ues":1199,"ring":1200,"Ġtook":1201,"Ġocc":1202,"ruct":1203,"aving":1204,"ĠAustral":1205,"Ġbatt":1206,"ĠOct":1207,"Ġann":1208,"Ġsupport":1209,"ove":1210,"ĠNov":1211,"Ġfollowing":1212,"Ġsix":1213,"Ġnorth":1214,"Ġele":1215,"ĠCar":1216,"Ġ193":1217,"ĠHowever":1218,"Ġsystem":1219,"Ġappear":1220,"uss":1221,"Ġfinal":1222,"Ġreceived":1223,"Ġclass":1224,"ined":1225,"ĠOctober":1226,"Ġhead":1227,"ives":1228,"Ġprom":1229,"Ġconsid":1230,"ene":1231,"ants":1232,"rad":1233,"ling":1234,"ility":1235,"ically":1236,"ĠDec":1237,"ĠPro":1238,"Ġ191":1239,"Ġever":1240,"Ġstate":1241,"Ġbuild":1242,"ret":1243,"Ġeach":1244,"anu":1245,"Ġext":1246,"Ġfive":1247,"rist":1248,"Ġaut":1249,"rol":1250,"ĠYork":1251,"Ġcentury":1252,"ina":1253,"Ġvar":1254,"Ġbo":1255,"Ġwill":1256,"Ġarea":1257,"ĠThey":1258,"ately":1259,"Ġsmall":1260,"get":1261,"oss":1262,"Ġpartic":1263,"Ġlife":1264,"ĠNorth":1265,"iving":1266,"ril":1267,"Ġreport":1268,"Ġ]":1269,"ĠMe":1270,"Ġ[":1271,"tle":1272,"ored":1273,"ĠBy":1274,"ĠJune":1275,"ians":1276,"ording":1277,"Ġcity":1278,"gin":1279,"Ġmar":1280,"ped":1281,"ĠKing":1282,"Ġmajor":1283,"Ġweek":1284,"Ġpublic":1285,"ĠJuly":1286,"Ġ%":1287,"ission":1288,"Ġconf":1289,"ĠHar":1290,"Ġband":1291,"ection":1292,"Ġref":1293,"med":1294,"ĠNovember":1295,"inc":1296,"urch":1297,"Ġrest":1298,"ĠComm":1299,"ĠWill":1300,"Ġworld":1301,"ĠPh":1302,"Ġmed":1303,"Ġsince":1304,"esp":1305,"Ġsingle":1306,"raft":1307,"raph":1308,"por":1309,"ĠApril":1310,"ble":1311,"ĠMc":1312,"ains":1313,"ried":1314,"lish":1315,"Ġdet":1316,"ĠMarch":1317,"omet":1318,"Ġjust":1319,"Ġlast":1320,"ected":1321,"ural":1322,"ional":1323,"hest":1324,"ĠEd":1325,"aim":1326,"Ġturn":1327,"ively":1328,"Ġhel":1329,"ilt":1330,"Ġallow":1331,"Ġpo":1332,"ĠCan":1333,"Ġ30":1334,"cl":1335,"ient":1336,"vious":1337,"ĠGe":1338,"Ġleft":1339,"Ġlarge":1340,"Ġline":1341,"ats":1342,"Ġdiffer":1343,"ales":1344,"ĠSouth":1345,"Ġcare":1346,"Ġsouth":1347,"Ġadv":1348,"ĠDuring":1349,"ified":1350,"Ġdr":1351,"Ġstr":1352,"Ġbook":1353,"Ġvers":1354,"empt":1355,"Ġschool":1356,"Ġsl":1357,"ague":1358,"ĠDecember":1359,"Ġthird":1360,"avy":1361,"Ġincre":1362,"Ġ25":1363,"Ġmonth":1364,"Ġdue":1365,"Ġappro":1366,"..":1367,"Ġplayed":1368,"Ġmuch":1369,"Ġevent":1370,"row":1371,"ĠPr":1372,"Ġif":1373,"rote":1374,"Ġanother":1375,"ĠJanu":1376,"Ġ192":1377,"ĠJanuary":1378,"Ġincluded":1379,"Ġwhat":1380,"Ġplace":1381,"Ġbased":1382,"Ġshort":1383,"ne":1384,"ĠII":1385,"ony":1386,"Ġexpl":1387,"Ġgovernment":1388,"Ġperson":1389,"ball":1390,"Ġwrote":1391,"ĠWhen":1392,"Ġtrack":1393,"apan":1394,"Ġcamp":1395,"Ġtit":1396,"Ġold":1397,"ĠEu":1398,"Ġbre":1399,"alf":1400,"Ġname":1401,"Ġdeath":1402,"Ġport":1403,"Ġelect":1404,"ently":1405,"Ġ...":1406,"ple":1407,"rent":1408,"ĠJapan":1409,"ience":1410,"Ġeng":1411,"Ġwon":1412,"by":1413,"ĠOr":1414,"Ġchild":1415,"Ġprot":1416,"Ġlit":1417,"Ġkill":1418,"Ġprog":1419,"oad":1420,"Ġstory":1421,"ideo":1422,"ages":1423,"Ġpower":1424,"ĠBro":1425,"Ġreview":1426,"ĠTe":1427,"ody":1428,"Ġvis":1429,"ital":1430,"Ġhome":1431,"ott":1432,"Ġled":1433,"ps":1434,"Ġdescribed":1435,"eng":1436,"Ġrequ":1437,"oman":1438,"Ġprevious":1439,"Ġfamily":1440,"Ġgun":1441,"rand":1442,"tain":1443,"Ġway":1444,"yl":1445,"Ġnamed":1446,"Ġright":1447,"Ġnow":1448,"ĠMus":1449,"Ġdem":1450,"urther":1451,"iod":1452,"iven":1453,"Ġmen":1454,"ilar":1455,"Ġeven":1456,"Ġmake":1457,"embers":1458,"Ġorgan":1459,"ĠGu":1460,"reen":1461,"ister":1462,"ont":1463,"cy":1464,"iversity":1465,"omin":1466,"Ġattempt":1467,"Ġbest":1468,"itions":1469,"Ġ100":1470,"Ġcour":1471,"ĠÂ":1472,"Ġrepl":1473,"ivision":1474,"Ġopp":1475,"Ġleg":1476,"rench":1477,"Ġgames":1478,"ior":1479,"ached":1480,"Ġterm":1481,"ĠAnd":1482,"Ġcommand":1483,"ival":1484,"Ġhand":1485,"ĠFl":1486,"Ġposs":1487,"mp":1488,"Ġbelie":1489,"Ġdam":1490,"Ġvery":1491,"ox":1492,"ĠHis":1493,"Ġthose":1494,"ĠFeb":1495,"ĠEurop":1496,"Ġpar":1497,"ĠFebru":1498,"ĠFebruary":1499,"sh":1500,"Ġiss":1501,"Ġstill":1502,"Ġtop":1503,"Ġnext":1504,"Ġspecies":1505,"ĠChrist":1506,"Ġeffect":1507,"riend":1508,"Ġview":1509,"ched":1510,"ĠThere":1511,"ĠNational":1512,"oci":1513,"Ġoriginal":1514,"aken":1515,"ĠWe":1516,"ature":1517,"ences":1518,"Ġspe":1519,"lu":1520,"Ġwater":1521,"ness":1522,"Ġaddition":1523,"Ġjoin":1524,"ĠBar":1525,"ĠEurope":1526,"Ġlist":1527,"au":1528,"Ġperiod":1529,"Ġwithin":1530,"alk":1531,"Ġmembers":1532,"Ġmark":1533,"eter":1534,"Ġdeb":1535,"Ġheld":1536,"Ġbuilt":1537,"ĠFrench":1538,"Ġexper":1539,"hor":1540,"af":1541,"ĠAm":1542,"Ġ2010":1543,"Ġrelease":1544,"ĠPar":1545,"Ġlate":1546,"Ġalthough":1547,"Ġformer":1548,"rew":1549,"Ġmatch":1550,"Ġgreat":1551,"augh":1552,"ridge":1553,"ney":1554,"Ġcur":1555,"Ġdest":1556,"Ġsold":1557,"uted":1558,"tended":1559,"Ġvideo":1560,"Ġ21":1561,"ards":1562,"Ġcaus":1563,"ĠWest":1564,"line":1565,"Ġstorm":1566,"Ġcover":1567,"ĠX":1568,"ves":1569,"ech":1570,"Ġinit":1571,"Ġrole":1572,"ropical":1573,"Ġtri":1574,"ĠWilliam":1575,"self":1576,"Ġcame":1577,"Ġestab":1578,"hel":1579,"ĠHer":1580,"Ġdays":1581,"ances":1582,"Ġresult":1583,"Ġmid":1584,"Ġpresent":1585,"na":1586,"lev":1587,"Ġcontrol":1588,"aged":1589,"ption":1590,"oon":1591,"ulation":1592,"Ġstand":1593,"Ġreal":1594,"Ġpolit":1595,"Ġhowever":1596,"ĠMin":1597,"itary":1598,"aster":1599,"ham":1600,"Ġ2008":1601,"Ġprop":1602,"let":1603,"ense":1604,"Ġ2009":1605,"ĠMan":1606,"atic":1607,"ides":1608,"Ġfew":1609,"Ġtown":1610,"Ġ24":1611,"Ġwind":1612,"ĠGeor":1613,"omb":1614,"Ġyou":1615,"ograph":1616,"Ġtw":1617,"Ġside":1618,"Ġsk":1619,"Ġcontinued":1620,"Ġoften":1621,"Ġequ":1622,"Ġpost":1623,"ĠEar":1624,"ays":1625,"Ġlocal":1626,"Ġ2011":1627,"elt":1628,"ĠChar":1629,"ator":1630,"Ġamong":1631,"ĠAir":1632,"Ġsimilar":1633,"ruction":1634,"ead":1635,"ches":1636,"ĠMich":1637,"ract":1638,"Ġhum":1639,"Ġav":1640,"Ġclaim":1641,"estern":1642,"ĠNo":1643,"omen":1644,"ung":1645,"Ġ&":1646,"ĠEngland":1647,"reet":1648,"read":1649,"akes":1650,"Ġdifferent":1651,"side":1652,"ese":1653,"ops":1654,"Ġmy":1655,"Ġdel":1656,"ler":1657,"Ġbeh":1658,"ĠRec":1659,"ology":1660,"par":1661,"Ġtyp":1662,"Ġ22":1663,"Ġfurther":1664,"Ġsent":1665,"esc":1666,"ĠDav":1667,"ots":1668,"ested":1669,"Ġlevel":1670,"urs":1671,"Ġfre":1672,"Ġconsidered":1673,"Ġtake":1674,"Ġlaw":1675,"ery":1676,"ĠEl":1677,"Ġtot":1678,"Ġ2007":1679,"gy":1680,"Ġcareer":1681,"ĠOne":1682,"ront":1683,"Ġproduction":1684,"arm":1685,"me":1686,"Ġhalf":1687,"ices":1688,"ĠPark":1689,"ĠCo":1690,"Ġant":1691,"ĠCity":1692,"Ġhaving":1693,"ampions":1694,"bo":1695,"ĠAcc":1696,"ĠEnglish":1697,"Ġmag":1698,"Ġroad":1699,"Ġeast":1700,"Ġmoved":1701,"Ġdra":1702,"ering":1703,"Ġevery":1704,"Ġwest":1705,"Ġwithout":1706,"ĠAlthough":1707,"rodu":1708,"Ġcr":1709,"ĠCent":1710,"Ġappe":1711,"Ġplan":1712,"Ġplayer":1713,"Ġ2012":1714,"ining":1715,"Ġposition":1716,"Ġcor":1717,"Ġbecome":1718,"Ġarr":1719,"Ġhistory":1720,"Ġversion":1721,"vers":1722,"Ġtro":1723,"ĠCal":1724,"ford":1725,"ĠAng":1726,"ondon":1727,"ones":1728,"Ġcast":1729,"ĠCount":1730,"Ġel":1731,"Ġinflu":1732,"ize":1733,"Ġarm":1734,"Ġ23":1735,"ĠLondon":1736,"Ġhouse":1737,"yle":1738,"Ġsound":1739,"rig":1740,"Ġfore":1741,"Ġcommun":1742,"resent":1743,"irc":1744,"app":1745,"ĠBatt":1746,"Ġgr":1747,"Ġclub":1748,"Ġsugg":1749,"roy":1750,"aul":1751,"atter":1752,"Ġstrong":1753,"Ġinvol":1754,"ai":1755,"Ġwritten":1756,"Ġ190":1757,"aining":1758,"ĠWith":1759,"Ġbas":1760,"Ġstat":1761,"Ġless":1762,"oung":1763,"utes":1764,"Ġannoun":1765,"rest":1766,"Ġfoot":1767,"ĠRiver":1768,"iqu":1769,"ald":1770,"Ġorder":1771,"Ġrefer":1772,"iety":1773,"iment":1774,"ges":1775,"Ġprof":1776,"craft":1777,"ĠCanad":1778,"ae":1779,"Ġaff":1780,"Ġpoint":1781,"sequ":1782,"Ġtem":1783,"Ġgiven":1784,"Ġrad":1785,"Ġlow":1786,"Ġtrad":1787,"Ġhig":1788,"Ġwant":1789,"ĠGener":1790,"ĠUniversity":1791,"ille":1792,"Ġke":1793,"Ġgave":1794,"Ġpat":1795,"uck":1796,"isc":1797,"Ġimport":1798,"ĠPol":1799,"Ġnever":1800,"aff":1801,"ĠWhile":1802,"Ġchang":1803,"Ġdefe":1804,"ories":1805,"Ġsoc":1806,"Ġreturned":1807,"ration":1808,"ĠAb":1809,"Ġvict":1810,"Ġtotal":1811,"Ġfact":1812,"ĠHigh":1813,"Ġgood":1814,"ention":1815,"ĠTr":1816,"Ġcompany":1817,"Ġfire":1818,"sp":1819,"ailed":1820,"Ġcountry":1821,"Ġwent":1822,"ison":1823,"Ġcomb":1824,"cess":1825,"Ġfriend":1826,"ours":1827,"rick":1828,"ĠEx":1829,"Ġcapt":1830,"Ġpublished":1831,"aun":1832,"Ġproduced":1833,"levision":1834,"Ġfind":1835,"aying":1836,"con":1837,"Ġreported":1838,"Ġorigin":1839,"ĠSm":1840,"Ġ2006":1841,"aign":1842,"Ġlost":1843,"Ġstated":1844,"Ġcommon":1845,"Ġprogram":1846,"ington":1847,"Ġlight":1848,"yn":1849,"Ġparticular":1850,"ape":1851,"Ġord":1852,"echn":1853,"Ġadm":1854,"Ġinclude":1855,"ests":1856,"ĠAccording":1857,"Ġlarg":1858,"ably":1859,"urric":1860,"Ġcompet":1861,"Ġer":1862,"used":1863,"Ġrecorded":1864,"ief":1865,"Ġbuilding":1866,"Ġpress":1867,"ĠSte":1868,"Ġneed":1869,"ĠNe":1870,"Ġbus":1871,"Ġproject":1872,"hing":1873,"Ġforces":1874,"ument":1875,"Ġnort":1876,"Ġ27":1877,"Ġships":1878,"Ġshould":1879,"Ġusing":1880,"Ġeight":1881,"Ġ50":1882,"Ġ28":1883,"Ġperformance":1884,"iness":1885,"ĠSw":1886,"Ġservice":1887,"bs":1888,"Ġpopular":1889,"Ġide":1890,"ploy":1891,"ĠThese":1892,"Ġtimes":1893,"osp":1894,"Ġmaking":1895,"Ġten":1896,"Ġaircraft":1897,"Ġhimself":1898,"oyal":1899,"Ġfun":1900,"Ġauthor":1901,"Ġ2013":1902,"Ġfather":1903,"atch":1904,"Ġmilitary":1905,"ĠAustralia":1906,"ĠSec":1907,"Ġanim":1908,"lear":1909,"Ġbattle":1910,"ampionship":1911,"ned":1912,"ĠJack":1913,"ĠAss":1914,"Ġsit":1915,"Ġlim":1916,"Ġsongs":1917,"Ġsomet":1918,"Ġread":1919,"ĠAf":1920,"outher":1921,"Ġcritic":1922,"ensive":1923,"ither":1924,"ords":1925,"Ġdevelopment":1926,"Ġsw":1927,"Ġhow":1928,"Ġgl":1929,"Ġ40":1930,"ĠGeneral":1931,"alth":1932,"eth":1933,"Ġsol":1934,"itive":1935,"eder":1936,"ases":1937,"quad":1938,"Ġ26":1939,"ĠState":1940,"oll":1941,"ĠCor":1942,"outhern":1943,"ĠJames":1944,"Ġcross":1945,"cer":1946,"Ġ189":1947,"amb":1948,"Ġrepresent":1949,"ĠSy":1950,"Ġground":1951,"Ġdestroy":1952,"acy":1953,"Ġstar":1954,"Ġft":1955,"Ġremained":1956,"astern":1957,"Ġste":1958,"ks":1959,"rie":1960,"Ġcharacters":1961,"ĠArmy":1962,"Ġnational":1963,"ĠPres":1964,"Ġget":1965,"ries":1966,"work":1967,"Ġmonths":1968,"Ġsuff":1969,"Ġgen":1970,"ĠBo":1971,"Ġdied":1972,"aur":1973,"Ġter":1974,"ĠGl":1975,"ĠComp":1976,"ublic":1977,"Ġdeveloped":1978,"Ġtitle":1979,"dom":1980,"Ġsum":1981,"Ġchart":1982,"fic":1983,"Ġcampaign":1984,"ream":1985,"urricane":1986,"Ġforce":1987,"ĠLeague":1988,"Ġchildren":1989,"Ġintrodu":1990,"lands":1991,"ency":1992,"Ġpra":1993,"Ġtour":1994,"Ġpromot":1995,"itted":1996,"isted":1997,"ael":1998,"Ġson":1999,"Ġsignific":2000,"Ġred":2001,"Ġacross":2002,"Ġaway":2003,"ression":2004,"hern":2005,"Ġrelations":2006,"Ġobs":2007,"Ġhistor":2008,"Ġfield":2009,"Ġofficial":2010,"ĠDivision":2011,"Ġfav":2012,"Ġfelt":2013,"ole":2014,"lege":2015,"ĠAmerica":2016,"Ġnoted":2017,"Ġfac":2018,"ĠSim":2019,"Ġnight":2020,"alt":2021,"Ġannounced":2022,"most":2023,"Ġreached":2024,"ĠRuss":2025,"Ġintern":2026,"ĠSup":2027,"Ġcreated":2028,"ĠCounty":2029,"Ġareas":2030,"com":2031,"ĠRep":2032,"ĠMon":2033,"Ġtelevision":2034,"Ġcoun":2035,"Ġ2005":2036,"ĠRoad":2037,"ĠJapanese":2038,"Ġstation":2039,"hem":2040,"ressed":2041,"Ġsuccessful":2042,"ĠMad":2043,"Ġrock":2044,"imately":2045,"Ġval":2046,"ĠGr":2047,"ĠReg":2048,"ising":2049,"Ġvarious":2050,"ĠâĢĻ":2051,"Ġbar":2052,"ĠStreet":2053,"Ġpolitical":2054,"Ġseen":2055,"Ġfollowed":2056,"Ġaver":2057,"field":2058,"iber":2059,"iting":2060,"Ġtoo":2061,"Ġ29":2062,"Ġrank":2063,"ett":2064,"ĠEast":2065,"ope":2066,"Ġperformed":2067,"cast":2068,"ĠRober":2069,"Ġcult":2070,"ization":2071,"Ġserved":2072,"Ġ2014":2073,"Ġplayers":2074,"Ġfront":2075,"reg":2076,"Ġrev":2077,"ality":2078,"ĠGeorge":2079,"Ġcond":2080,"Ġfull":2081,"Ġprim":2082,"Ġdecl":2083,"Ġblack":2084,"ination":2085,"elling":2086,"Ġbegin":2087,"duct":2088,"Ġfle":2089,"Ġput":2090,"ĠSer":2091,"Ġcirc":2092,"Ġconv":2093,"Ġearl":2094,"ĠPer":2095,"olution":2096,"ĠTo":2097,"ĠHen":2098,"Ġcost":2099,"abor":2100,"idence":2101,"Ġsee":2102,"Ġprocess":2103,"Ġnon":2104,"Ġdiv":2105,"Ġstyle":2106,"ying":2107,"Ġlook":2108,"ĠPhil":2109,"Ġseven":2110,"Ġvol":2111,"Ġaud":2112,"Ġkilled":2113,"ĠEm":2114,"Ġcy":2115,"Ġhelp":2116,"rict":2117,"Ġlet":2118,"lished":2119,"play":2120,"Ġthroughout":2121,"ĠBill":2122,"Ġtaken":2123,"Ġtropical":2124,"Ġable":2125,"ana":2126,"Ġfight":2127,"Ġdiscover":2128,"Ġagre":2129,"ecut":2130,"ertain":2131,"Ġlittle":2132,"Ġwid":2133,"Ġbecom":2134,"Ġfem":2135,"Ġage":2136,"urg":2137,"Ġsignificant":2138,"ĠSch":2139,"Ġhit":2140,"Ġmeet":2141,"Ġident":2142,"ĠThom":2143,"ways":2144,"irl":2145,"Ġtechn":2146,"Ġspecial":2147,"Ġcop":2148,"oice":2149,"Ġwriting":2150,"Ġstruct":2151,"ĠDavid":2152,"Ġthought":2153,"Ġestablished":2154,"ĠPart":2155,"Ġbroad":2156,"ĠAct":2157,"enced":2158,"ĠMor":2159,"Ġmm":2160,"Ġappeared":2161,"Ġdoes":2162,"Ġcoll":2163,"Ġentire":2164,"ĠAustralian":2165,"aval":2166,"cil":2167,"epend":2168,"Ġyoung":2169,"Ġcoast":2170,"Ġpoints":2171,"Ġ!":2172,"Ġmiles":2173,"ius":2174,"Ġbody":2175,"Ġaward":2176,"less":2177,"Ġimpro":2178,"ĠRich":2179,"Ġroute":2180,"Ġmember":2181,"odes":2182,"ought":2183,"ĠMed":2184,"ground":2185,"ript":2186,"Ġwomen":2187,"Ġactiv":2188,"Ġrange":2189,"ster":2190,"ask":2191,"ĠPe":2192,"ivil":2193,"ĠYou":2194,"Ġcaused":2195,"Ġstarted":2196,"Ġdecided":2197,"iers":2198,"blem":2199,"Ġfeatures":2200,"lected":2201,"day":2202,"ĠAfric":2203,"Ġgeneral":2204,"Ġpain":2205,"ĠQu":2206,"Ġeventually":2207,"ators":2208,"iron":2209,"iec":2210,"int":2211,"umb":2212,"men":2213,"conom":2214,"oph":2215,"ogn":2216,"uk":2217,"den":2218,"ĠRoyal":2219,"Ġrace":2220,"Ġarch":2221,"Ġvot":2222,"here":2223,"itar":2224,"Ġgrow":2225,"Ġmanag":2226,"Ġfeet":2227,"pped":2228,"rison":2229,"Ġtoget":2230,"Ġtogether":2231,"ush":2232,"Ġadded":2233,"ĠHist":2234,"ĠHouse":2235,"Ġtre":2236,"Ġhold":2237,"bert":2238,"Ġcut":2239,"ivid":2240,"Ġ188":2241,"Ġwhite":2242,"Ġonce":2243,"Ġnov":2244,"ample":2245,"ament":2246,"Ġformed":2247,"Ġarg":2248,"Ġlocated":2249,"Ġstri":2250,"reek":2251,"urb":2252,"Ġconn":2253,"Ġmodern":2254,"off":2255,"ĠBlack":2256,"Ġenc":2257,"Ġinstead":2258,"dle":2259,"ĠPort":2260,"head":2261,"rought":2262,"aces":2263,"Ġround":2264,"Ġesc":2265,"Ġ31":2266,"Ġball":2267,"ara":2268,"Ġmix":2269,"emy":2270,"ĠIntern":2271,"Ġimportant":2272,"ee":2273,"Ġpri":2274,"cing":2275,"Ġcrew":2276,"Ġsaw":2277,"Ġaction":2278,"Ġcompleted":2279,"Ġredu":2280,"ĠItal":2281,"Ġplaying":2282,"ects":2283,"ĠIndian":2284,"ids":2285,"oney":2286,"cent":2287,"rated":2288,"ĠOther":2289,"ells":2290,"Ġ2004":2291,"ata":2292,"Ġinsp":2293,"Ġbase":2294,"Ġmater":2295,"Ġpopulation":2296,"ĠMy":2297,"Ġmot":2298,"Ġsurv":2299,"ĠMichael":2300,"Ġvoc":2301,"Ġask":2302,"Ġrather":2303,"Ġoccur":2304,"Ġopened":2305,"Ġstage":2306,"Ġbehind":2307,"Ġothers":2308,"Ġ186":2309,"ray":2310,"Ġfall":2311,"Ġren":2312,"Ġguns":2313,"asing":2314,"ceed":2315,"Ġbrother":2316,"wood":2317,"ements":2318,"igned":2319,"Ġcomment":2320,"lin":2321,"Ġlik":2322,"stit":2323,"Ġborn":2324,"Ġfif":2325,"Ġ2015":2326,"Ġsite":2327,"Ġlive":2328,"Ġworks":2329,"Ġloss":2330,"ĠFrance":2331,"Ġbomb":2332,"Ġworked":2333,"ficult":2334,"Ġheavy":2335,"Ġmiss":2336,"Ġpred":2337,"Ã¡":2338,"ĠSchool":2339,"medi":2340,"rap":2341,"Ġsubsequ":2342,"Ġlack":2343,"Ġparty":2344,"Ġproblem":2345,"nder":2346,"lection":2347,"Ġdifficult":2348,"Ġclose":2349,"ĠWash":2350,"Ġconstruction":2351,"Ġknow":2352,"ĠNor":2353,"ĠSome":2354,"Ġrelationship":2355,"Ġhost":2356,"Ġweeks":2357,"istic":2358,"ĠSan":2359,"Ġoriginally":2360,"Ġsepar":2361,"Ġassoci":2362,"arch":2363,"co":2364,"Ġupon":2365,"Ġpract":2366,"Ġreb":2367,"ĠHenry":2368,"Ġleading":2369,"Ġappoin":2370,"Ġaccom":2371,"Ġvill":2372,"Ġalmost":2373,"Ġmer":2374,"ĠRobert":2375,"orts":2376,"Ġpeak":2377,"ĠAle":2378,"Ġinj":2379,"Ġdamage":2380,"lic":2381,"unk":2382,"Ġscored":2383,"Ġfourth":2384,"osition":2385,"Ġinform":2386,"Ġ2000":2387,"Ġreve":2388,"ĠMusic":2389,"aps":2390,"Ġprovided":2391,"ĠBest":2392,"ming":2393,"Ġcase":2394,"ĠVir":2395,"ĠStar":2396,"Ġgoal":2397,"Ġclos":2398,"ĠBattle":2399,"board":2400,"Ġengine":2401,"Ġcreat":2402,"ĠRed":2403,"Ġaccept":2404,"Ġmi":2405,"Ġinvest":2406,"ica":2407,"oring":2408,"Ġscene":2409,"ellow":2410,"ĠDesp":2411,"Ġhuman":2412,"angu":2413,"ule":2414,"ino":2415,"ological":2416,"Ġbrought":2417,"Ġ500":2418,"Ġfree":2419,"Ġindivid":2420,"Ġ187":2421,"ĠPaul":2422,"Ġfeatured":2423,"ula":2424,"Ġmother":2425,"ĠPresident":2426,"ĠRou":2427,"Ġking":2428,"Ġleast":2429,"ama":2430,"Ġworking":2431,"aut":2432,"Ġallowed":2433,"Ġlaun":2434,"Ġresul":2435,"ĠMil":2436,"Ġaverage":2437,"ĠCap":2438,"Ġtowards":2439,"Ġwanted":2440,"Ġmult":2441,"Ġindust":2442,"Ġtradition":2443,"aves":2444,"Ġregion":2445,"Ġbusiness":2446,"ĠWashington":2447,"ĠHol":2448,"iding":2449,"azine":2450,"ĠAg":2451,"ĠQue":2452,"Ġve":2453,"Ġquick":2454,"Ġtroops":2455,"Ġplaced":2456,"Ġeither":2457,"Ġce":2458,"Ġrespect":2459,"ving":2460,"Ġoffice":2461,"Ġcritics":2462,"ky":2463,"ĠBel":2464,"Ġavail":2465,"Ġhon":2466,"antic":2467,"Ġreach":2468,"ĠÃ":2469,"Ġprofess":2470,"Ġexample":2471,"Ġruns":2472,"Ġmaterial":2473,"Ġeconom":2474,"Ġrecogn":2475,"Ġfar":2476,"ened":2477,"Ġwife":2478,"ze":2479,"go":2480,"earch":2481,"to":2482,"chie":2483,"Ġneg":2484,"Ġestim":2485,"ential":2486,"Ġarmy":2487,"Ġfoc":2488,"right":2489,"ĠDespite":2490,"Ġsex":2491,"Ġ2003":2492,"Ġinterest":2493,"ĠFollow":2494,"ĠCour":2495,"Ġsour":2496,"ength":2497,"Ġgenerally":2498,"Ġmass":2499,"Ġjoined":2500,"Ġdou":2501,"Ġrail":2502,"quadron":2503,"ĠHam":2504,"Ġproper":2505,"ills":2506,"ĠAngel":2507,"uff":2508,"enes":2509,"Ġcurrent":2510,"Ġdev":2511,"ourn":2512,"ĠHall":2513,"ĠCup":2514,"Ġevents":2515,"Ġbelieved":2516,"ĠGame":2517,"itch":2518,"of":2519,"Ġparticip":2520,"Ġ35":2521,"rey":2522,"be":2523,"Ġfig":2524,"ĠFollowing":2525,"ĠKe":2526,"ville":2527,"ĠFirst":2528,"ĠMary":2529,"ĠDr":2530,"Ġz":2531,"Ġvictory":2532,"Ġreplaced":2533,"ĠLou":2534,"ĠGreat":2535,"artment":2536,"Ġdesigned":2537,"Ġmph":2538,"iction":2539,"Ġgrad":2540,"ĠJe":2541,"Ġrul":2542,"itte":2543,"Ġsoon":2544,"Ġnomin":2545,"sc":2546,"Ġisland":2547,"ĠGro":2548,"Ġfund":2549,"xic":2550,"ĠLa":2551,"erous":2552,"oor":2553,"Ġhours":2554,"ĠEuropean":2555,"ĠTwo":2556,"Ġemploy":2557,"Ġpresident":2558,"ĠMal":2559,"Ġroom":2560,"ification":2561,"Ġinvolved":2562,"aled":2563,"uel":2564,"Ġsurf":2565,"val":2566,"aper":2567,"Ġfinished":2568,"merc":2569,"Ġstru":2570,"ĠChampionship":2571,"inn":2572,"inist":2573,"asion":2574,"west":2575,"ĠMart":2576,"inf":2577,"ĠPlay":2578,"Ġbreak":2579,"ĠRoman":2580,"Ġhor":2581,"rain":2582,"aren":2583,"iff":2584,"Ġsaying":2585,"arn":2586,"emor":2587,"Ġcourt":2588,"Ġshot":2589,"Ġthreat":2590,"ĠBer":2591,"Ġscore":2592,"Ġopening":2593,"Ġregular":2594,"ĠDan":2595,"BC":2596,"Ġdesp":2597,"Ġdirector":2598,"Ġlength":2599,"ĠMet":2600,"ĠMac":2601,"ĠDon":2602,"Ġindic":2603,"ades":2604,"leg":2605,"cher":2606,"ĠScott":2607,"Ġconduct":2608,"Ġlargest":2609,"Ġcontrib":2610,"Ġtravel":2611,"Ġhom":2612,"oul":2613,"ki":2614,"Ġpossible":2615,"ecutive":2616,"Ġill":2617,"ude":2618,"now":2619,"Ġminutes":2620,"Ġhighway":2621,"ĠRoute":2622,"Ġsouthern":2623,"ishing":2624,"Ġdro":2625,"ĠCro":2626,"Ġhy":2627,"ĠVal":2628,"icle":2629,"Ġhighest":2630,"Ġremov":2631,"ĠFrom":2632,"Ġearlier":2633,"Ġ2001":2634,"Ġtest":2635,"ĠAtl":2636,"Ġinitially":2637,"ĠSing":2638,"ago":2639,"Ġly":2640,"Ġavailable":2641,"Ġparticularly":2642,"Ġpercent":2643,"ander":2644,"antry":2645,"Ġhard":2646,"ĠWil":2647,"anned":2648,"Ġsequ":2649,"Ġtraining":2650,"ĠRepublic":2651,"Ġforced":2652,"Ġmust":2653,"Ġexist":2654,"ply":2655,"ĠMid":2656,"ipp":2657,"hib":2658,"ĠMag":2659,"ĠKingdom":2660,"ĠCharles":2661,"ĠNavy":2662,"ography":2663,"asy":2664,"Ġpark":2665,"ĠÂ°":2666,"rian":2667,"bor":2668,"ateg":2669,"Ġrespons":2670,"Ġended":2671,"Ġquar":2672,"rac":2673,"ĠMcC":2674,"ĠOff":2675,"Ġturned":2676,"Ġwall":2677,"ĠThomas":2678,"Ġexc":2679,"Ġsocial":2680,"ĠInternational":2681,"uture":2682,"ĠBut":2683,"Ġstudio":2684,"ĠPal":2685,"ems":2686,"iforn":2687,"ĠRes":2688,"rag":2689,"ĠDep":2690,"ios":2691,"Ġchange":2692,"ĠWhite":2693,"Ġlangu":2694,"ĠVirgin":2695,"Ġpraised":2696,"Ġpassed":2697,"Ġsuper":2698,"Ġpriv":2699,"Ġbill":2700,"atural":2701,"Ġpiec":2702,"Ġincreased":2703,"Ġobject":2704,"ĠBrown":2705,"rup":2706,"Ġeduc":2707,"Ġhurricane":2708,"Ġregard":2709,"Ġnorthern":2710,"heast":2711,"Ġ2002":2712,"Ġkeep":2713,"Ġphys":2714,"Ġcentral":2715,"ights":2716,"ĠChurch":2717,"itor":2718,"Ġnovel":2719,"Ġrelig":2720,"ĠCanada":2721,"sel":2722,"Ġspeed":2723,"Ġappearance":2724,"ĠCaliforn":2725,"Ġunits":2726,"Ġpast":2727,"rem":2728,"ership":2729,"ĠRock":2730,"ĠSl":2731,"key":2732,"Ġstop":2733,"Ġchurch":2734,"ĠSen":2735,"ended":2736,"Ġcou":2737,"Ġimmedi":2738,"ĠBay":2739,"uter":2740,"Ġsym":2741,"ston":2742,"ĠMo":2743,"ĠSmith":2744,"ocr":2745,"Ġdisp":2746,"Ġmeas":2747,"Ġordered":2748,"aughter":2749,"ĠMer":2750,"Ġtreat":2751,"ique":2752,"ĠSam":2753,"Ġtaking":2754,"ference":2755,"ĠRichard":2756,"rying":2757,"ittee":2758,"Ġindepend":2759,"Ġlove":2760,"ĠAlex":2761,"Ġsigned":2762,"Ġmove":2763,"ilities":2764,"ĠCalifornia":2765,"Ġachie":2766,"etwork":2767,"Ġbetter":2768,"Ġpers":2769,"ump":2770,"ĠUnion":2771,"itz":2772,"aker":2773,"ĠGod":2774,"Ġap":2775,"ĠGovern":2776,"ecess":2777,"arily":2778,"Ġinn":2779,"Ġwinds":2780,"ĠIsland":2781,"Ġcommerc":2782,"Ġenough":2783,"Ġwat":2784,"Ġpositive":2785,"ears":2786,"nel":2787,"ume":2788,"ĠCourt":2789,"Ġaccording":2790,"Ġhous":2791,"Ġspent":2792,"elled":2793,"Ġgoing":2794,"Ġpot":2795,"Ġabove":2796,"ĠBra":2797,"Ġslow":2798,"anks":2799,"Ġoutside":2800,"Ġfilms":2801,"apt":2802,"ĠTom":2803,"ĠVict":2804,"ĠUp":2805,"ĠCong":2806,"Ġfeel":2807,"Ġtold":2808,"Ġfootball":2809,"ma":2810,"ĠAward":2811,"berg":2812,"quare":2813,"Ġclear":2814,"Ġpreviously":2815,"uation":2816,"Ġquest":2817,"Ġstates":2818,"Ġrecording":2819,"Ġ1990":2820,"Ġmean":2821,"anding":2822,"ĠAssoci":2823,"Ġ60":2824,"ĠAc":2825,"Ġnine":2826,"het":2827,"Ġpur":2828,"usion":2829,"Ġsubject":2830,"ĠArt":2831,"Ġfailed":2832,"atin":2833,"ows":2834,"Ġassist":2835,"Ġcome":2836,"ĠCompany":2837,"Ġrequired":2838,"reng":2839,"osing":2840,"Ġ45":2841,"Ġelements":2842,"Ġprob":2843,"van":2844,"Ġey":2845,"ida":2846,"ĠStud":2847,"Ġcru":2848,"alion":2849,"ĠIndia":2850,"Ġlower":2851,"ĠGermany":2852,"Ġreviews":2853,"Ġinterview":2854,"edy":2855,"Ġphot":2856,"Ġparts":2857,"ĠMark":2858,"ĠPeter":2859,"ĠGold":2860,"Ġitself":2861,"ĠChristian":2862,"Ġsil":2863,"Ġnar":2864,"Ġthink":2865,"nes":2866,"ranch":2867,"ship":2868,"Ġdirected":2869,"Ġabs":2870,"isl":2871,"Ġesp":2872,"Ġflow":2873,"ibility":2874,"Ġdespite":2875,"Ġcred":2876,"amer":2877,"Ġcontract":2878,"Ġ185":2879,"oke":2880,"ĠNY":2881,"ĠThat":2882,"Ġdebut":2883,"ĠTimes":2884,"Ġ?":2885,"ĠÂ£":2886,"ĠPat":2887,"erved":2888,"Ġaccess":2889,"ready":2890,"leb":2891,"ĠCast":2892,"Ġbeginning":2893,"oid":2894,"Ġbi":2895,"Ġgroups":2896,"ĠCollege":2897,"Ġviol":2898,"onna":2899,"ĠHill":2900,"Ġsection":2901,"ĠUK":2902,"ĠSov":2903,"ability":2904,"hester":2905,"Ġwhose":2906,"ĠBr":2907,"asons":2908,"Ġclaimed":2909,"ĠWestern":2910,"Ġinternational":2911,"Ġasked":2912,"Ġlines":2913,"Ġtransfer":2914,"Ġprevent":2915,"ĠDem":2916,"Ġstreng":2917,"Ġscreen":2918,"Ġgive":2919,"airs":2920,"Ġche":2921,"ĠSoviet":2922,"onse":2923,"rief":2924,"Ġunc":2925,"Ġbeg":2926,"Ġkey":2927,"Ġadditional":2928,"Ġfuture":2929,"ĠFilm":2930,"mar":2931,"ĠGrand":2932,"ĠMexic":2933,"Ġleague":2934,"Ġwhom":2935,"ĠFrank":2936,"Ġop":2937,"ĠDo":2938,"Ġgold":2939,"ĠSpan":2940,"Ġpoor":2941,"ĠBen":2942,"ĠAwards":2943,"Ġfort":2944,"lying":2945,"Ġintroduced":2946,"Ġevidence":2947,"Ġdon":2948,"Ġprem":2949,"ites":2950,"onst":2951,"Ġsea":2952,"Ġidea":2953,"ex":2954,"Ġquickly":2955,"Ġcal":2956,"atory":2957,"Ġalready":2958,"ĠSoc":2959,"Ġ32":2960,"Ġcenter":2961,"Ġbridge":2962,"Ġfrequ":2963,"ĠForce":2964,"usp":2965,"ĠMost":2966,"Ġelection":2967,"Ġproduct":2968,"Ġoccup":2969,"eck":2970,"Ġpil":2971,"Ġexcept":2972,"ĠCoun":2973,"back":2974,"Ġ1970":2975,"unt":2976,"Ġdeal":2977,"irth":2978,"eum":2979,"ecially":2980,"Ġpen":2981,"Ġusually":2982,"Ġmusical":2983,"Ġ1980":2984,"Ġemb":2985,"Ġwestern":2986,"Ġarrived":2987,"aring":2988,"ĠRob":2989,"Ġblock":2990,"eal":2991,"Ġradio":2992,"ĠBritain":2993,"Ġcivil":2994,"liam":2995,"Ġcycl":2996,"ergy":2997,"ully":2998,"ĠOver":2999,"Ġfemale":3000,"Ġsometimes":3001,"ĠDay":3002,"Ġstudy":3003,"Ġfood":3004,"Ġresponse":3005,"Ġdecision":3006,"Ġmoney":3007,"ĠPac":3008,"Ġmagazine":3009,"Ġespecially":3010,"ĠHot":3011,"Ġissue":3012,"ĠLater":3013,"asc":3014,"liament":3015,"ĠVictor":3016,"ĠIm":3017,"Ġlab":3018,"Ġsurface":3019,"Ġliter":3020,"gen":3021,"rack":3022,"Ġ-":3023,"Ġflood":3024,"Ġmight":3025,"aint":3026,"ĠChic":3027,"Ġenv":3028,"ĠTra":3029,"Ġguitar":3030,"Ġcarried":3031,"ĠBur":3032,"Ġshows":3033,"Ġcommunity":3034,"ena":3035,"Ġconstruct":3036,"iter":3037,"Ġestimated":3038,"Ġarran":3039,"Ġremain":3040,"aries":3041,"ĠMill":3042,"Ġ1999":3043,"Ġremaining":3044,"Ġeastern":3045,"Ġminor":3046,"ha":3047,"Ġdefeated":3048,"Ġdeterm":3049,"ĠRh":3050,"inent":3051,"ession":3052,"ĠVirginia":3053,"ĠEarly":3054,"Ġapprox":3055,"igan":3056,"Ġlarger":3057,"raw":3058,"ulf":3059,"Ġbecoming":3060,"Ġrap":3061,"Ġwood":3062,"Ġcomplete":3063,"ĠMount":3064,"Ġ36":3065,"rab":3066,"ror":3067,"Ġpolice":3068,"Ġsuggested":3069,"porary":3070,"Ġmedia":3071,"Ġpressure":3072,"Ġentered":3073,"Ġshoot":3074,"Ġ80":3075,"Ġteams":3076,"rics":3077,"ĠLos":3078,"ĠJust":3079,"Ġcommercial":3080,"Ġanal":3081,"ĠInf":3082,"Ġdoc":3083,"Ġlatter":3084,"ands":3085,"NA":3086,"Ġmarket":3087,"erve":3088,"Ġlo":3089,"Ġconsider":3090,"Ġstudents":3091,"ises":3092,"Ġsurround":3093,"Ġinvestig":3094,"Ġbrief":3095,"Ġconcern":3096,"Ġpersonal":3097,"ĠSecond":3098,"inct":3099,"Ġbur":3100,"ĠIf":3101,"ĠTex":3102,"Ġcertain":3103,"Ġprison":3104,"Ġacqu":3105,"Ġdiscuss":3106,"ĠFle":3107,"ĠJackson":3108,"Ġeffects":3109,"Ġcomplet":3110,"Ġhop":3111,"Ġappointed":3112,"alled":3113,"Ġder":3114,"Ġsummer":3115,"Ġepisodes":3116,"ĠCont":3117,"Ġprior":3118,"ederal":3119,"incip":3120,"ĠFlor":3121,"Ġsat":3122,"Ġtar":3123,"change":3124,"Ġemer":3125,"Ġstaff":3126,"enth":3127,"lymp":3128,"Ġsize":3129,"ĠLouis":3130,"ores":3131,"Ġchanges":3132,"ulated":3133,"Ġcommission":3134,"sy":3135,"omm":3136,"tt":3137,"imate":3138,"Ġwinning":3139,"Ġlimited":3140,"Ġscenes":3141,"ĠOlymp":3142,"Ġriver":3143,"Ġfleet":3144,"Ġleaving":3145,"Ġdestroyed":3146,"iser":3147,"Ġdeg":3148,"Ġdraw":3149,"Ġpay":3150,"II":3151,"ĠClub":3152,"Ġden":3153,"Ġrid":3154,"lo":3155,"que":3156,"ĠSpanish":3157,"Ġ75":3158,"Ġself":3159,"ga":3160,"su":3161,"Ġrights":3162,"ournal":3163,"Ġprovide":3164,"Ġwriter":3165,"ires":3166,"rigade":3167,"Ġpolic":3168,"sen":3169,"Ġtype":3170,"idents":3171,"Ġfail":3172,"ari":3173,"ension":3174,"Ġdate":3175,"Ġtrib":3176,"Ġterrit":3177,"oms":3178,"ĠKh":3179,"Ġgirl":3180,"Ġproposed":3181,"rd":3182,"Ġinfluence":3183,"ties":3184,"ĠGreen":3185,"ĠParty":3186,"Ġoverall":3187,"Ġtax":3188,"Ġ184":3189,"Ġkil":3190,"Ġtransport":3191,"Ġ1960":3192,"Ġstructure":3193,"ĠTer":3194,"Ġcontro":3195,"Ġequip":3196,"ĠDu":3197,"Ġ300":3198,"Ġdivision":3199,"Ġscript":3200,"Ġbr":3201,"iral":3202,"inese":3203,"ÃŃ":3204,"ĠAssociation":3205,"Ġagreed":3206,"Ġanti":3207,"Ġintended":3208,"ĠPri":3209,"Ġjud":3210,"Ġbow":3211,"ĠEdward":3212,"Ġrunning":3213,"ift":3214,"ending":3215,"icles":3216,"ĠChicago":3217,"Ġdaughter":3218,"Ġbig":3219,"Ġbroadcast":3220,"Ġpurch":3221,"Ġnearly":3222,"Ġsupported":3223,"ĠMany":3224,"atives":3225,"AF":3226,"ĠAdm":3227,"Ġdeep":3228,"Ġdi":3229,"Ġresearch":3230,"Ġwide":3231,"imum":3232,"Ġestablish":3233,"ĠRo":3234,"Ġhelped":3235,"Ġmarried":3236,"Ġ1998":3237,"Ġmovement":3238,"ĠChinese":3239,"Ġawarded":3240,"Ġmultip":3241,"ĠSong":3242,"ĠIr":3243,"ĠCouncil":3244,"ili":3245,"ĠOper":3246,"iles":3247,"atively":3248,"acing":3249,"irm":3250,"Ġcreate":3251,"Ġfavor":3252,"Ġintens":3253,"Ġdiss":3254,"Ġbird":3255,"ĠSal":3256,"ĠEnter":3257,"Ġdark":3258,"Ġsusp":3259,"pris":3260,"omer":3261,"ny":3262,"teen":3263,"Ġstars":3264,"Ã¶":3265,"che":3266,"Ġlonger":3267,"Ġlanguage":3268,"Ġhigher":3269,"Ġcat":3270,"ĠEv":3271,"Ġplanned":3272,"mon":3273,"Ġcompared":3274,"Ġcaptured":3275,"Ġincreasing":3276,"Ġfans":3277,"Ġconclud":3278,"Ġcourse":3279,"uz":3280,"Ġchanged":3281,"ĠServ":3282,"ĠSuper":3283,"ĠEmp":3284,"ĠJohnson":3285,"Ġ33":3286,"ounds":3287,"Ġexperience":3288,"Ġapproximately":3289,"Ġrelated":3290,"selves":3291,"Ġdone":3292,"Ġfeature":3293,"Ġfifth":3294,"Ġliving":3295,"enty":3296,"ĠKore":3297,"Ġthemselves":3298,"abit":3299,"ĠHistory":3300,"Ġproducer":3301,"bers":3302,"itt":3303,"Ġ70":3304,"tained":3305,"arent":3306,"Ġtemper":3307,"Ġspace":3308,"Ġtracks":3309,"Ġmostly":3310,"ss":3311,"ĠPacific":3312,"isions":3313,"Ġwithd":3314,"ĠInter":3315,"ĠBack":3316,"uth":3317,"anced":3318,"olic":3319,"ĠBillboard":3320,"ij":3321,"Ġthus":3322,"ĠApp":3323,"ĠBet":3324,"ĠNot":3325,"can":3326,"Ġwoman":3327,"Ġdead":3328,"umn":3329,"ĠMont":3330,"Ġoperations":3331,"Ġimm":3332,"Ġremains":3333,"Ġsyn":3334,"Ġbring":3335,"Ġquarter":3336,"thing":3337,"Ġour":3338,"Ġnatural":3339,"Ġwhether":3340,"imin":3341,"vin":3342,"Ġult":3343,"Ã¼":3344,"oint":3345,"Ġconcept":3346,"Ġweap":3347,"Ġdram":3348,"ĠFinal":3349,"ĠScot":3350,"anded":3351,"Ġprobably":3352,"Ġsoldiers":3353,"Ġran":3354,"Ġcopies":3355,"rast":3356,"ĠSun":3357,"bour":3358,"Ġbuildings":3359,"Ġleader":3360,"Ġvoice":3361,"Ġ1997":3362,"Ġface":3363,"Ġboy":3364,"Ġextended":3365,"ĠSince":3366,"Ġlyrics":3367,"Ġforward":3368,"Ġdepart":3369,"ĠKn":3370,"Ġcomplex":3371,"Ġboard":3372,"ĠAtlantic":3373,"Ġreact":3374,"iring":3375,"Ġbattles":3376,"vey":3377,"Ġissued":3378,"Ġheav":3379,"Ġchall":3380,"riage":3381,"ging":3382,"Ġreally":3383,"Ġcountries":3384,"ospital":3385,"Ġ37":3386,"rate":3387,"Ġsuffered":3388,"ĠLake":3389,"ĠCongress":3390,"Ġcm":3391,"ĠLove":3392,"ĠFort":3393,"ĠFranc":3394,"Ġgoals":3395,"ĠFlorida":3396,"urt":3397,"ĠSever":3398,"Ġincludes":3399,"Ġimmediately":3400,"Ġmeth":3401,"ĠBoth":3402,"Ġattend":3403,"ĠBig":3404,"hood":3405,"Ġbreed":3406,"Ġcapital":3407,"Ġmanager":3408,"Ġmixed":3409,"Ġprivate":3410,"iant":3411,"ĠJim":3412,"ĠJew":3413,"Ġofficers":3414,"Ġlikely":3415,"ĠOld":3416,"Ġcann":3417,"Ġdistrib":3418,"hold":3419,"ĠAnt":3420,"ien":3421,"Ġmach":3422,"ĠQueen":3423,"de":3424,"bury":3425,"Ġremoved":3426,"ĠTexas":3427,"Ġplant":3428,"Ġinitial":3429,"Ġceleb":3430,"ĠSea":3431,"Ġincrease":3432,"venue":3433,"ĠTown":3434,"Ġhealth":3435,"Ġsubsequently":3436,"ĠDist":3437,"Ġleave":3438,"Ġplans":3439,"ria":3440,"Ġalways":3441,"Ġfocus":3442,"Ġcoin":3443,"ĠLaw":3444,"Ġnetwork":3445,"ections":3446,"Ġservices":3447,"Ġmount":3448,"Ġvia":3449,"Ġstatus":3450,"Ġcompan":3451,"ĠTrans":3452,"ĠTor":3453,"rial":3454,"ĠPet":3455,"ĠChina":3456,"Ġvisit":3457,"Ġlocation":3458,"ĠMr":3459,"order":3460,"ams":3461,"ĠAnother":3462,"iation":3463,"Ġflag":3464,"Ġproblems":3465,"ĠLord":3466,"ĠCamp":3467,"ĠHow":3468,"ĠEarth":3469,"Ġoffered":3470,"Ġinstr":3471,"well":3472,"ously":3473,"aily":3474,"Ġmodel":3475,"Ġterms":3476,"Ġnorm":3477,"etic":3478,"Ġmur":3479,"ĠConst":3480,"Ġcolon":3481,"Ġapproach":3482,"Ġsomething":3483,"Ġvillage":3484,"Ġadminist":3485,"Ġtons":3486,"Ġfell":3487,"ounted":3488,"ĠWood":3489,"wer":3490,"ĠBoy":3491,"ctor":3492,"ĠOl":3493,"Ġtor":3494,"ironment":3495,"Ġsch":3496,"Ġmajority":3497,"ĠTur":3498,"Ġprofessional":3499,"orning":3500,"Ġcounter":3501,"Ġ183":3502,"ĠCanadian":3503,"ĠIts":3504,"adium":3505,"ĠRail":3506,"Ã³":3507,"Ġgot":3508,"ibr":3509,"ĠAfrica":3510,"Ġcause":3511,"ĠMur":3512,"Ġconsist":3513,"burg":3514,"aches":3515,"uries":3516,"Ġinters":3517,"Ġdamaged":3518,"Ġmeeting":3519,"ĠGre":3520,"Ġjob":3521,"Ġappears":3522,"Ġadop":3523,"Ġminute":3524,"Ġranked":3525,"olk":3526,"Ġlay":3527,"ĠCenter":3528,"uf":3529,"Ġindividual":3530,"oes":3531,"Ġcomposed":3532,"cean":3533,"Ġrevealed":3534,"ĠSquadron":3535,"ĠHighway":3536,"ify":3537,"Ġang":3538,"ste":3539,"Ġflight":3540,"Ġattacks":3541,"ĠRussian":3542,"itect":3543,"Ġ90":3544,"Ġplot":3545,"Ġdiscovered":3546,"Ġraised":3547,"lor":3548,"reak":3549,"umed":3550,"ĠRad":3551,"ĠMel":3552,"Ġfinanc":3553,"Ġrespectively":3554,"Ġmakes":3555,"pan":3556,"ĠKent":3557,"ĠCarol":3558,"ĠMartin":3559,"ĠCentral":3560,"ĠSir":3561,"Ġnumerous":3562,"ĠIII":3563,"Ġ1995":3564,"Ġassociated":3565,"Ġaltern":3566,"gar":3567,"Ġtakes":3568,"ĠAngeles":3569,"Ġdomin":3570,"Ġneeded":3571,"Ġinspired":3572,"ĠBow":3573,"Ġanc":3574,"Ġlived":3575,"Ġ34":3576,"oe":3577,"ault":3578,"Ġgrand":3579,"Ġlaunched":3580,"Ġyet":3581,"ription":3582,"Ġcand":3583,"Ġnature":3584,"Ġpow":3585,"Ġamb":3586,"Ġdig":3587,"Ġcoach":3588,"Ġoccurred":3589,"Ġcontains":3590,"ĠDV":3591,"Ġveh":3592,"estival":3593,"Ġbene":3594,"Ġshown":3595,"Ġattempted":3596,"uals":3597,"Ġattacked":3598,"ĠDes":3599,"uments":3600,"Ġmoving":3601,"Ġconditions":3602,"Ġupper":3603,"Ġhour":3604,"ĠTV":3605,"ka":3606,"iest":3607,"down":3608,"imb":3609,"ken":3610,"Ġsales":3611,"Ġgra":3612,"ective":3613,"Ġ38":3614,"ĠGroup":3615,"ĠMiss":3616,"joy":3617,"ĠYear":3618,"Ġcollect":3619,"Ġ2016":3620,"ĠDel":3621,"aught":3622,"ĠTour":3623,"Ġ1996":3624,"orce":3625,"Ġissues":3626,"Ġbirth":3627,"Ġ1950":3628,"ĠRev":3629,"Ġwhole":3630,"Ġsal":3631,"izing":3632,"Ġi":3633,"Ġexam":3634,"Ġcer":3635,"Ġinformation":3636,"Ġyards":3637,"Ġfarm":3638,"Ġslight":3639,"ĠEmpire":3640,"ĠOut":3641,"Ġbox":3642,"urity":3643,"Ġmom":3644,"win":3645,"vert":3646,"Ġreferred":3647,"uing":3648,"Ġcritical":3649,"oly":3650,"Ġincor":3651,"reme":3652,"ĠUnder":3653,"ĠPenn":3654,"ĠGar":3655,"Ġnumbers":3656,"Ġfinally":3657,"Ġsmaller":3658,"Ġelected":3659,"Ġselected":3660,"Ġdefeat":3661,"Ġresulted":3662,"Ġsen":3663,"Ġscient":3664,"Ġstay":3665,"Ġbad":3666,"Ġgrant":3667,"Ġqual":3668,"Ġactive":3669,"Ġprincip":3670,"Ġsinger":3671,"kin":3672,"Ġstandard":3673,"Ġsecret":3674,"Ġpit":3675,"itation":3676,"ĠItalian":3677,"uated":3678,"Ġmission":3679,"Ġindustry":3680,"Ġ1994":3681,"enant":3682,"Ġlargely":3683,"Ġens":3684,"Ġoperation":3685,"Ġsem":3686,"andon":3687,"ĠJose":3688,"Ġprec":3689,"Ġlink":3690,"ortun":3691,"onic":3692,"oura":3693,"Ġassigned":3694,"use":3695,"Ġsaf":3696,"Ġlegisl":3697,"Ġearned":3698,"Ġthr":3699,"Ġcommented":3700,"itude":3701,"Ġmale":3702,"Ġexpected":3703,"ãĥ":3704,"ĠDVD":3705,"ĠCorps":3706,"iled":3707,"ĠDis":3708,"Ġroy":3709,"Ġaudience":3710,"Ġlisted":3711,"Ġsuggest":3712,"Ġgre":3713,"oud":3714,"ĠCrit":3715,"ĠArm":3716,"Ġcovered":3717,"Ġpurp":3718,"Ġunable":3719,"irection":3720,"Ġsched":3721,"Ġheart":3722,"Ġtraditional":3723,"ĠCr":3724,"Ġeducation":3725,"gr":3726,"Ġtrade":3727,"Ġartist":3728,"Ġnewsp":3729,"ya":3730,"Ġdouble":3731,"Ġfriends":3732,"Ġclosed":3733,"ĠViet":3734,"Ġunderst":3735,"Ġrefused":3736,"agon":3737,"Ġaw":3738,"Ġrecover":3739,"Ġattention":3740,"ounts":3741,"Ġmethod":3742,"Ġprimary":3743,"ighter":3744,"Ġsister":3745,"ogue":3746,"Ġkind":3747,"Ġtalk":3748,"ĠMichigan":3749,"ĠPre":3750,"tered":3751,"Ġreason":3752,"ffic":3753,"Ġofficer":3754,"Ġplat":3755,"Ġbelow":3756,"Ġcontem":3757,"hips":3758,"Ġ1940":3759,"ĠWales":3760,"Ġenjoy":3761,"Ġability":3762,"Ġdepression":3763,"Ġmeant":3764,"ĠMass":3765,"Ġperformances":3766,"Ġdeclared":3767,"oo":3768,"Ġwalk":3769,"ĠNort":3770,"Ġ49":3771,"Ġblood":3772,"isher":3773,"ĠMore":3774,"Ġgiving":3775,"ĠCath":3776,"Ġletter":3777,"Ġcompl":3778,"Ġword":3779,"undred":3780,"ples":3781,"Ġ180":3782,"Ġfighting":3783,"Ġmiddle":3784,"ĠCle":3785,"Ġcommander":3786,"Ġreligious":3787,"Ġbooks":3788,"Ġtheat":3789,"Ġmax":3790,"Ġhot":3791,"Ġsett":3792,"Ġrate":3793,"ĠOx":3794,"ĠArch":3795,"ĠStep":3796,"ĠLong":3797,"Ġrecords":3798,"ils":3799,"Ġmatches":3800,"Ġconstit":3801,"ĠAcad":3802,"Ġnames":3803,"ona":3804,"aped":3805,"ĠBec":3806,"ĠTest":3807,"ĠDemocr":3808,"Ġproduce":3809,"Ġquestion":3810,"ĠFer":3811,"ĠCare":3812,"antasy":3813,"Ġcompetition":3814,"utch":3815,"Ġcentre":3816,"Ġserious":3817,"Ġunit":3818,"ux":3819,"ĠTeam":3820,"odies":3821,"Ġdisapp":3822,"Ġtouch":3823,"Ġvocals":3824,"ims":3825,"ĠMinister":3826,"irt":3827,"ĠSeveral":3828,"iences":3829,"Ġmention":3830,"ĠZeal":3831,"osh":3832,"ounded":3833,"Ġ1992":3834,"Ġri":3835,"ĠMajor":3836,"ector":3837,"ĠCons":3838,"Ġ41":3839,"Ġaccount":3840,"Ġdocument":3841,"Ġabandon":3842,"ĠWal":3843,"road":3844,"icted":3845,"Ġrapid":3846,"Ġenergy":3847,"Ġnecess":3848,"ares":3849,"Ġmor":3850,"quar":3851,"Ġkilomet":3852,"ĠKenn":3853,"ervation":3854,"echan":3855,"ĠFore":3856,"Ġdut":3857,"Ġconstructed":3858,"ening":3859,"Ġtheme":3860,"Ġris":3861,"rug":3862,"oses":3863,"rier":3864,"ĠFox":3865,"ĠSum":3866,"ette":3867,"ĠTime":3868,"Ġroyal":3869,"Ġpick":3870,"ishop":3871,"Ġstra":3872,"Ġnearby":3873,"Ġhighly":3874,"Ġseparate":3875,"ĠZealand":3876,"yr":3877,"ĠEr":3878,"Ġcontinue":3879,"vention":3880,"Ġprep":3881,"ĠSo":3882,"Ġchief":3883,"Ġdrum":3884,"ails":3885,"Ġeffort":3886,"Ġcas":3887,"Ġpresented":3888,"edic":3889,"ĠHaw":3890,"Ġtur":3891,"ĠSar":3892,"Ġcombat":3893,"ĠMexico":3894,"oper":3895,"Ġpositions":3896,"ĠAfrican":3897,"Ġreduced":3898,"Ġannual":3899,"ĠBu":3900,"ether":3901,"Ġ400":3902,"ibly":3903,"Ġcontrovers":3904,"ĠChris":3905,"ĠMatt":3906,"Ġdirectly":3907,"ieut":3908,"ĠMa":3909,"ĠFour":3910,"Ġ1930":3911,"Ġlevels":3912,"cel":3913,"Ġmeans":3914,"Ġcle":3915,"Ġneigh":3916,"ĠWall":3917,"Ġnotes":3918,"Ġattended":3919,"Ġsevent":3920,"Ġpractice":3921,"Ġtried":3922,"shire":3923,"Ġcompos":3924,"Ġforest":3925,"uit":3926,"emorial":3927,"Ġ55":3928,"Ġfast":3929,"Ġhar":3930,"Ġnuc":3931,"Ġedition":3932,"Ġtrain":3933,"ĠLit":3934,"ĠBrad":3935,"ĠDar":3936,"acher":3937,"ado":3938,"ĠChart":3939,"ĠTre":3940,"ĠBob":3941,"arents":3942,"Ġtwenty":3943,"vement":3944,"Ġmetal":3945,"Ġ1993":3946,"ĠMadonna":3947,"Ġaccepted":3948,"osen":3949,"Ġwatch":3950,"Ġstating":3951,"Ġ1991":3952,"Ġmovie":3953,"Ġarchitect":3954,"Ġtext":3955,"rical":3956,"ĠHel":3957,"Ġrepe":3958,"Ġcandid":3959,"isation":3960,"track":3961,"Ġconcert":3962,"ĠScotland":3963,"Ġadvance":3964,"stitute":3965,"Ġ179":3966,"Ġpair":3967,"ĠJones":3968,"Ġportray":3969,"Ġdirection":3970,"Ġfr":3971,"irmed":3972,"house":3973,"ersey":3974,"Äĩ":3975,"Ġseem":3976,"Ġdism":3977,"ĠTheir":3978,"Ġschools":3979,"Ġlegal":3980,"ĠAnn":3981,"ani":3982,"Ġreject":3983,"eway":3984,"lict":3985,"inem":3986,"ih":3987,"wide":3988,"Ġasp":3989,"ĠManc":3990,"icip":3991,"fall":3992,"Ġge":3993,"Ġhorse":3994,"ĠCross":3995,"Ġthick":3996,"Ġmarriage":3997,"illery":3998,"aging":3999,"Ġrecomm":4000,"Ġ+":4001,"ĠGreek":4002,"ĠDepartment":4003,"light":4004,"Ġefforts":4005,"Ġmanaged":4006,"Ġcollege":4007,"ĠDou":4008,"awn":4009,"Ġ39":4010,"Ġpurs":4011,"like":4012,"icient":4013,"ĠGo":4014,"Ġwing":4015,"utions":4016,"Ġresulting":4017,"hy":4018,"Ġending":4019,"irit":4020,"ieutenant":4021,"ĠThree":4022,"band":4023,"Ġshowed":4024,"Ġdropped":4025,"Ġresponsible":4026,"ĠMic":4027,"ĠPost":4028,"MS":4029,"ĠInfantry":4030,"Ġ182":4031,"Ġnation":4032,"Ġdisplay":4033,"Ġinside":4034,"illed":4035,"ĠFoot":4036,"ita":4037,"Ġcases":4038,"Ġkept":4039,"Ġcust":4040,"Ġenvironment":4041,"ĠLad":4042,"ĠBost":4043,"Ġ48":4044,"Ġculture":4045,"Ġrare":4046,"Ġmeaning":4047,"Ġrat":4048,"ĠLeg":4049,"Ġcyclone":4050,"olf":4051,"Ġdom":4052,"Ġincorpor":4053,"Ġbegins":4054,"Ġ42":4055,"Ġvariety":4056,"ceeded":4057,"Ġmorning":4058,"Ġsubst":4059,"pe":4060,"Ġcerem":4061,"pass":4062,"Ġhouses":4063,"ĠStone":4064,"Ġforms":4065,"Ġchampionship":4066,"ĠService":4067,"Ġwords":4068,"rane":4069,"Ġarrest":4070,"Ġschol":4071,"ĠCreek":4072,"Ġyard":4073,"peror":4074,"ĠWilliams":4075,"ĠHung":4076,"Ġoil":4077,"ĠRecords":4078,"ĠSecret":4079,"Ġmarked":4080,"Ġinches":4081,"cend":4082,"Ġcontinues":4083,"Ġspl":4084,"ini":4085,"Ġscience":4086,"ĠBC":4087,"Ġperm":4088,"Ġ181":4089,"Ġsymb":4090,"gl":4091,"ĠNews":4092,"gypt":4093,"ecting":4094,"Åį":4095,"ols":4096,"Ġbank":4097,"ĠHal":4098,"ĠStan":4099,"ĠParliament":4100,"Ġuses":4101,"Ġeconomic":4102,"ĠSur":4103,"writ":4104,"cle":4105,"Ġsource":4106,"ĠGames":4107,"thel":4108,"bed":4109,"ĠFin":4110,"ras":4111,"ĠTro":4112,"Ġquality":4113,"Ġdefend":4114,"ĠPan":4115,"ĠTri":4116,"ulations":4117,"Ġlear":4118,"Ġhundred":4119,"Ġsettle":4120,"Ġimpact":4121,"Ġstarting":4122,"Ġconducted":4123,"ĠBook":4124,"thur":4125,"Ġspecific":4126,"Ġstrugg":4127,"Ġallowing":4128,"wh":4129,"ĠEgypt":4130,"ĠSociety":4131,"Ġbeat":4132,"Ġ1942":4133,"Ġpresence":4134,"ĠSol":4135,"Ġamount":4136,"Ġdu":4137,"ĠJer":4138,"Ġsides":4139,"ĠOh":4140,"Ġviewers":4141,"Ġcaptain":4142,"sych":4143,"een":4144,"Ġdance":4145,"Ġmetres":4146,"ingu":4147,"Ġchap":4148,"Ġunivers":4149,"Ġsuppl":4150,"ĠLu":4151,"Ġexhib":4152,"Ġrule":4153,"Ġple":4154,"ĠPrince":4155,"ĠSouthern":4156,"ĠVer":4157,"ĠStephen":4158,"Ġdistinct":4159,"Ġmultiple":4160,"ĠGeorg":4161,"ĠSat":4162,"ding":4163,"Ġtransferred":4164,"Ġpotential":4165,"ĠCommittee":4166,"Ġforeign":4167,"Ġ47":4168,"ĠLatin":4169,"Ġcontrast":4170,"ĠOxford":4171,"Ġ65":4172,"Ġpeaked":4173,"inet":4174,"itiz":4175,"Ġenemy":4176,"Ġyour":4177,"arian":4178,"ĠSil":4179,"Ġtraffic":4180,"Ġbecomes":4181,"Ġmess":4182,"ĠSpec":4183,"ping":4184,"Ġowned":4185,"Ġthings":4186,"Ġfounded":4187,"Ġgreater":4188,"ĠJoseph":4189,"ĠLike":4190,"Ġvocal":4191,"ĠAdmiral":4192,"Ġopt":4193,"Ġconcluded":4194,"Ġportion":4195,"very":4196,"Ġcastle":4197,"Ġscoring":4198,"ĠCamb":4199,"ider":4200,"Ġrespond":4201,"ym":4202,"Ġstories":4203,"Ġproperty":4204,"iance":4205,"Ġattempts":4206,"Ġencoun":4207,"ĠBoston":4208,"rong":4209,"anes":4210,"Ġrelatively":4211,"kn":4212,"ĠTw":4213,"ĠChief":4214,"ĠManchester":4215,"Ġprimarily":4216,"Ġdemonst":4217,"ĠHarrison":4218,"ĠJeff":4219,"Ġfederal":4220,"Ġfinancial":4221,"ograp":4222,"ĠClass":4223,"ressive":4224,"ellig":4225,"ĠForm":4226,"ĠCaptain":4227,"ĠBecause":4228,"ĠBefore":4229,"Ġactually":4230,"Ġanimals":4231,"ĠSwed":4232,"Ġobserved":4233,"ĠHurricane":4234,"Ġtourn":4235,"Ġlif":4236,"ĠWin":4237,"Ġcollection":4238,"ĠTim":4239,"Ġopportun":4240,"fect":4241,"ĠVietn":4242,"ĠBat":4243,"Ġtitled":4244,"Ġ52":4245,"ĠDen":4246,"Ġfeaturing":4247,"istics":4248,"Ġwriters":4249,"Ġ46":4250,"Ġwrite":4251,"Ġ1944":4252,"ĠDef":4253,"Ġjournal":4254,"eds":4255,"Ġwa":4256,"ĠBridge":4257,"ees":4258,"ĠFred":4259,"Ġstrength":4260,"Ġwor":4261,"umber":4262,"Ġinch":4263,"Ġmechan":4264,"Ġweaken":4265,"Ġsituation":4266,"ĠOtt":4267,"Ġspot":4268,"Ġpaid":4269,"Ġdistance":4270,"Ġpremi":4271,"Ġparents":4272,"ĠCommission":4273,"Ġindependent":4274,"ĠBattalion":4275,"Ġfigure":4276,"Ġshare":4277,"mas":4278,"rel":4279,"Ġmel":4280,"Ġactor":4281,"Ġ64":4282,"Ġacting":4283,"Ġcompanies":4284,"Ġdivided":4285,"ĠLittle":4286,"ĠParis":4287,"Ġmind":4288,"Ġ43":4289,"stein":4290,"Ġonto":4291,"ĠProdu":4292,"astic":4293,"ĠLuc":4294,"Ġcollabor":4295,"ĠLife":4296,"ĠColumb":4297,"ĠCarl":4298,"Ġtarget":4299,"anna":4300,"Ġslightly":4301,"Ġfunction":4302,"Ġpiece":4303,"ĠSeries":4304,"Ġreform":4305,"ĠMod":4306,"Ġselling":4307,"Ġ44":4308,"perial":4309,"ĠEntertain":4310,"aud":4311,"ricket":4312,"Ġpowerful":4313,"ĠGra":4314,"Ġtorped":4315,"Ġconcent":4316,"chest":4317,"Ġinnings":4318,"Ġrating":4319,"ĠMax":4320,"thlet":4321,"oration":4322,"ĠBBC":4323,"Ġplays":4324,"istry":4325,"Ġrough":4326,"Ġlot":4327,"Ġtoday":4328,"lam":4329,"Ġbroke":4330,"uge":4331,"Ġcho":4332,"Ġera":4333,"osaur":4334,"ĠPop":4335,"annel":4336,"ĠCroat":4337,"Ġactions":4338,"Ġwaters":4339,"Ġultimately":4340,"ĠOs":4341,"ĠHistor":4342,"Ġtrial":4343,"Ġsquare":4344,"Ġmaximum":4345,"rown":4346,"ada":4347,"Ġdise":4348,"Ġtend":4349,"itan":4350,"Ġpilot":4351,"load":4352,"Ġbound":4353,"Ġlog":4354,"illa":4355,"Ġinterp":4356,"rupt":4357,"Ġcompletely":4358,"ĠAcademy":4359,"Ġblue":4360,"under":4361,"Ġsought":4362,"Ġ1920":4363,"Ġgar":4364,"oti":4365,"Ġ1945":4366,"mond":4367,"Ġscale":4368,"mark":4369,"Ġsociety":4370,"ĠLine":4371,"Ġess":4372,"Ġbehav":4373,"Ġhus":4374,"ĠMuseum":4375,"ĠSaint":4376,"Ġmainly":4377,"ĠSk":4378,"alle":4379,"ota":4380,"Ġdesignated":4381,"Ġ1941":4382,"za":4383,"ĠHor":4384,"omy":4385,"Ġconver":4386,"Ġofficials":4387,"ĠVan":4388,"Ġstruck":4389,"Ġ150":4390,"Ġtransl":4391,"cers":4392,"ylvan":4393,"Ġactivity":4394,"Ġpolicy":4395,"Ġcombined":4396,"Ġsay":4397,"ĠWay":4398,"Ġinfluenced":4399,"Ġwear":4400,"olved":4401,"Ġcorn":4402,"iano":4403,"Ġsearch":4404,"AS":4405,"ĠEntertainment":4406,"ĠArab":4407,"Ġvess":4408,"ĠItaly":4409,"ented":4410,"Ġthous":4411,"Ġcalling":4412,"racted":4413,"Ġalongside":4414,"Ġnortheast":4415,"Ġseconds":4416,"Ġbatter":4417,"ala":4418,"ĠBrigade":4419,"Ġsout":4420,"ĠWind":4421,"orses":4422,"while":4423,"ĠAmericans":4424,"Ġwinter":4425,"ĠConf":4426,"Ġsources":4427,"ĠLee":4428,"Ġseg":4429,"Ġbackground":4430,"phy":4431,"ĠIre":4432,"Ġwebs":4433,"aine":4434,"Ġice":4435,"Ġnews":4436,"udd":4437,"Ġthir":4438,"ĠTod":4439,"Ġtheory":4440,"rative":4441,"Ġrecent":4442,"ĠAlb":4443,"Ġsuc":4444,"TV":4445,"Ġmem":4446,"Ġcrow":4447,"Ġgained":4448,"Ġnominated":4449,"Ġplatform":4450,"HL":4451,"onn":4452,"Ġartists":4453,"adel":4454,"ĠRegiment":4455,"Ġwidely":4456,"Ġnaval":4457,"quarters":4458,"Ġsystems":4459,"Ġpromoted":4460,"Ġelectric":4461,"Ġconfirmed":4462,"ube":4463,"ĠIreland":4464,"pson":4465,"Ġreaching":4466,"Ġproved":4467,"Ġresults":4468,"ĠAvenue":4469,"Ġpassing":4470,"ibrary":4471,"ĠFleet":4472,"Ġalbums":4473,"ĠGood":4474,"ĠEll":4475,"Ġexplained":4476,"Ġsubsequent":4477,"Ġgreatest":4478,"Ġconflict":4479,"ero":4480,"Ġwick":4481,"Ġcontent":4482,"Ġinvasion":4483,"Ġir":4484,"Ġsn":4485,"ĠAut":4486,"ĠRay":4487,"Ġ1989":4488,"Ġcoming":4489,"Ġcharge":4490,"Ġhero":4491,"Ġpeace":4492,"Ġresist":4493,"Ġsixth":4494,"hew":4495,"Ġnorthwest":4496,"Ġweather":4497,"oured":4498,"Ġcounty":4499,"Ġadj":4500,"ĠOrig":4501,"Ġshortly":4502,"grad":4503,"town":4504,"Ġ1943":4505,"aga":4506,"ĠBus":4507,"Ġversions":4508,"ĠSub":4509,"Ġpath":4510,"aling":4511,"Ġserve":4512,"Ġcausing":4513,"Ġsays":4514,"Ġsust":4515,"ĠLo":4516,"Ġ51":4517,"Ġexpressed":4518,"iced":4519,"Ġreception":4520,"Ġseek":4521,"ĠVictoria":4522,"ĠSant":4523,"Ġburn":4524,"itness":4525,"ĠCatholic":4526,"Ġresidents":4527,"Ġemot":4528,"bon":4529,"Ġborder":4530,"ĠNorm":4531,"ĠCharl":4532,"ĠTropical":4533,"ĠWork":4534,"Ġchem":4535,"Ġsoundtrack":4536,"ansion":4537,"ĠValley":4538,"Ġcities":4539,"ĠAdd":4540,"ĠMat":4541,"ips":4542,"Ġgreen":4543,"Ġseasons":4544,"tation":4545,"ĠNin":4546,"ategory":4547,"Ġappearances":4548,"Ġsense":4549,"ĠDi":4550,"ĠLight":4551,"Ġsexual":4552,"Ġhospital":4553,"Ġrequire":4554,"AA":4555,"infall":4556,"ĠMiddle":4557,"Ġpun":4558,"Ġphysical":4559,"Ġidentified":4560,"Ġolder":4561,"ighth":4562,"Ġhands":4563,"ĠLive":4564,"arden":4565,"Ġiron":4566,"ĠRam":4567,"ĠDun":4568,"ĠThough":4569,"Ġtrue":4570,"Ġtells":4571,"Ġoffer":4572,"ĠLiber":4573,"Ġdedic":4574,"Ġkg":4575,"ĠRy":4576,"unction":4577,"ĠCommun":4578,"ysis":4579,"Ġartillery":4580,"ancy":4581,"ĠShow":4582,"Ġrepresented":4583,"ĠTop":4584,"Ġweapons":4585,"ĠVol":4586,"Ġextra":4587,"Ġgas":4588,"ĠFootball":4589,"Ġahead":4590,"ĠThrough":4591,"eption":4592,"Ġpal":4593,"aded":4594,"ĠMen":4595,"ronic":4596,"ylvania":4597,"Ġeas":4598,"ĠKar":4599,"ĠJul":4600,"Ġheavily":4601,"ĠBey":4602,"ĠUpon":4603,"ĠYoung":4604,"Ġsupp":4605,"ĠDirect":4606,"abeth":4607,"itable":4608,"ĠTay":4609,"Ġavoid":4610,"ĠDutch":4611,"lers":4612,"Ġdefense":4613,"Ġchallen":4614,"Ġstudent":4615,"Ġagg":4616,"ĠWeek":4617,"Ġalone":4618,"Ġimage":4619,"Ġspread":4620,"Ġapparent":4621,"Ġstudies":4622,"Ġofficially":4623,"ĠEliz":4624,"Ġhusband":4625,"known":4626,"Ġdistrict":4627,"ĠIll":4628,"Ġexecutive":4629,"Ġbit":4630,"Ġinstit":4631,"ĠAlbert":4632,"ĠFre":4633,"bur":4634,"essions":4635,"Ġdebuted":4636,"Ġwild":4637,"Ġprominent":4638,"Ġcapture":4639,"Ġpack":4640,"Ġconsisted":4641,"Ġinstrument":4642,"Ġsend":4643,"Ġinjury":4644,"Ġfired":4645,"Ġorganization":4646,"Ġequipment":4647,"ĠRog":4648,"ports":4649,"Ġresc":4650,"Ġstone":4651,"pool":4652,"Ġpattern":4653,"ĠFar":4654,"Ġprepar":4655,"ĠBre":4656,"Ġargued":4657,"ĠDam":4658,"Ġaired":4659,"Ġfigures":4660,"ĠBond":4661,"Ġsurpris":4662,"Ġexped":4663,"urban":4664,"Ġgrowth":4665,"Ġeth":4666,"Ġpict":4667,"acity":4668,"ĠCivil":4669,"ĠHomer":4670,"Ġbud":4671,"Ġhun":4672,"Ġcouple":4673,"Ġgraph":4674,"Ġdoing":4675,"Ġreturning":4676,"Ġmagn":4677,"Ġring":4678,"Ġcontemporary":4679,"ushed":4680,"Ġpoet":4681,"Ġcert":4682,"lines":4683,"rog":4684,"Ġpan":4685,"Ġweight":4686,"Ġox":4687,"Ġlaid":4688,"Ġdoub":4689,"Ġhabit":4690,"Ġearth":4691,"Ġleaders":4692,"Ġstep":4693,"Ġfloor":4694,"Ġmatter":4695,"Ġaffected":4696,"ĠNorthern":4697,"ĠGal":4698,"Ġpieces":4699,"Ġtun":4700,"Ġ600":4701,"appen":4702,"amber":4703,"Ġpropos":4704,"ĠStorm":4705,"ias":4706,"Ġmaintained":4707,"inson":4708,"Ġrang":4709,"Ġoccasion":4710,"Ġshell":4711,"ĠHard":4712,"Ġhere":4713,"ifying":4714,"Ġvisited":4715,"Ġmaintain":4716,"ental":4717,"Ġcommunic":4718,"ĠDaniel":4719,"ĠHa":4720,"Ġcomes":4721,"Ġspeech":4722,"Ġtermin":4723,"Ġcriticized":4724,"emic":4725,"Ġhyd":4726,"Ġactivities":4727,"stone":4728,"Ġrain":4729,"rat":4730,"ĠJon":4731,"ĠCarolina":4732,"ockey":4733,"Ġexec":4734,"Ġattract":4735,"acement":4736,"Ġhall":4737,"ola":4738,"Ġcitiz":4739,"Ġtournament":4740,"Ġreign":4741,"Ġemph":4742,"Ġtoward":4743,"ocked":4744,"Ġsingles":4745,"uls":4746,"Ġdrug":4747,"Ġtrees":4748,"eed":4749,"Ġreference":4750,"ners":4751,"ĠScottish":4752,"Ġcrowd":4753,"ĠTem":4754,"Ġsenior":4755,"Ġformation":4756,"elve":4757,"Ġ53":4758,"Ġadapt":4759,"Ġ1987":4760,"Ġsurre":4761,"ĠRom":4762,"ĠMarsh":4763,"Ġsetting":4764,"Ġmedical":4765,"ivity":4766,"Ġworldwide":4767,"ĠSystem":4768,"Ġterritory":4769,"Ġtrying":4770,"ĠGovernment":4771,"estic":4772,"ĠHolly":4773,"Ġ1988":4774,"uct":4775,"Ġappl":4776,"Ġstations":4777,"orne":4778,"ruit":4779,"Ġdog":4780,"Ġbul":4781,"Ġnegoti":4782,"Ġbirds":4783,"ĠWrit":4784,"ĠFantasy":4785,"Ġgod":4786,"ĠOcean":4787,"gian":4788,"ĠOperation":4789,"eller":4790,"Ġdoll":4791,"ĠBackground":4792,"ĠField":4793,"Ġmachine":4794,"Ġfellow":4795,"ĠGovernor":4796,"Ġmurder":4797,"embly":4798,"ĠRod":4799,"Ġclaims":4800,"ĠDistrict":4801,"ĠHome":4802,"Ġcell":4803,"Ġdispl":4804,"Ġ85":4805,"ĠDev":4806,"Ġhistorian":4807,"ĠGuard":4808,"Ġrainfall":4809,"Ġrisk":4810,"ĠChe":4811,"omers":4812,"Ġaccident":4813,"ĠPenns":4814,"Ġfully":4815,"ĠColon":4816,"Ġload":4817,"uled":4818,"Ġvalue":4819,"Ġtherefore":4820,"ote":4821,"Ġsplit":4822,"bit":4823,"resh":4824,"ĠDuke":4825,"Ġchosen":4826,"Ġtreatment":4827,"Ġuniversity":4828,"Ġguest":4829,"ĠShort":4830,"velopment":4831,"rael":4832,"Ġsens":4833,"Ġtwice":4834,"ĠStudios":4835,"Ġfrequently":4836,"ĠGirl":4837,"Ġsupply":4838,"agn":4839,"ĠPolish":4840,"ĠLew":4841,"Ġreports":4842,"ordin":4843,"stitution":4844,"Ġleaves":4845,"ĠBeat":4846,"Ġgovernor":4847,"illy":4848,"ayer":4849,"Ġpaper":4850,"gu":4851,"Ġut":4852,"ĠSenate":4853,"Ġremark":4854,"aly":4855,"Ġdyn":4856,"ampion":4857,"ĠEastern":4858,"ledge":4859,"Ġlabel":4860,"izes":4861,"Ġfaced":4862,"azz":4863,"ĠMD":4864,"Ġopin":4865,"Ġwalls":4866,"Ġfollows":4867,"ĠCorn":4868,"Ġbillion":4869,"Ġoperated":4870,"ĠBart":4871,"Ġgrew":4872,"antine":4873,"ĠRos":4874,"ufact":4875,"Ġsurrounding":4876,"Ġplanet":4877,"ĠMean":4878,"min":4879,"Ġswe":4880,"rect":4881,"ĠAndrew":4882,"orter":4883,"antly":4884,"Ġcontained":4885,"onents":4886,"gend":4887,"Ġcondition":4888,"resp":4889,"Ġdegree":4890,"Ġbal":4891,"Ġherself":4892,"Ġhorses":4893,"Ġmanufact":4894,"ĠChristmas":4895,"ĠNight":4896,"ety":4897,"Ġcolor":4898,"isco":4899,"ĠJud":4900,"Ġsle":4901,"Ġaccompan":4902,"Ġwounded":4903,"rance":4904,"Ġtypically":4905,"Ġescape":4906,"ĠAllied":4907,"Ġ54":4908,"Ġpasses":4909,"Ġunf":4910,"Ġmaster":4911,"Ġsimply":4912,"ĠWilson":4913,"Ġbrown":4914,"Ġfuel":4915,"Ã¨":4916,"isters":4917,"Ġreinf":4918,"utation":4919,"Ġrailway":4920,"ĠInst":4921,"Ġelement":4922,"Ġdraft":4923,"Ġdang":4924,"ĠTaylor":4925,"aming":4926,"Ġeditor":4927,"Ġlives":4928,"la":4929,"Ġ1986":4930,"Ġorders":4931,"Ġarms":4932,"ĠElizabeth":4933,"Ġphil":4934,"mit":4935,"fully":4936,"more":4937,"Ġserving":4938,"Ġnothing":4939,"ographer":4940,"Ġcamer":4941,"ĠHum":4942,"ĠAlexander":4943,"uous":4944,"Ġauthority":4945,"Ġchose":4946,"ĠMike":4947,"Ġopposed":4948,"Ġworkers":4949,"Ġvote":4950,"Ġmoment":4951,"ĠGi":4952,"Ġconsecutive":4953,"Ġcannot":4954,"ricult":4955,"ĠPen":4956,"ĠEach":4957,"Ġnewly":4958,"Ġ95":4959,"ĠJoe":4960,"ĠOf":4961,"tar":4962,"Ġnative":4963,"ĠJac":4964,"Ġ56":4965,"Ġfan":4966,"Ġexperiment":4967,"ucky":4968,"Ġunknown":4969,"Ġ97":4970,"isf":4971,"Ġparticipated":4972,"ager":4973,"Ġgrowing":4974,"rich":4975,"ĠPers":4976,"Ġwebsite":4977,"Ġcasual":4978,"Ġemphas":4979,"Ġpsych":4980,"Ġattrib":4981,"ancing":4982,"ãĤ":4983,"ĠDet":4984,"Ġproducers":4985,"ef":4986,"Ġbass":4987,"ĠÎ":4988,"Ġnewspaper":4989,"Ġfair":4990,"ĠCastle":4991,"Ġbenef":4992,"Ġlosing":4993,"Ã¤":4994,"ĠExp":4995,"ĠFestival":4996,"ĠLand":4997,"Ġadvanced":4998,"Ġadopted":4999,"ilies":5000,"Ġfilming":5001,"imens":5002,"ĠSound":5003,"Ġheard":5004,"Ġspirit":5005,"Ġfeed":5006,"Ġsevere":5007,"ĠPennsylvania":5008,"pton":5009,"Ġoffensive":5010,"Ġopposition":5011,"then":5012,"Ġfirm":5013,"Ġfiction":5014,"ype":5015,"ĠRet":5016,"Ġextend":5017,"ĠWhat":5018,"Ġguard":5019,"ĠWat":5020,"Ġcapacity":5021,"Ġrom":5022,"ĠHead":5023,"orship":5024,"ĠIslands":5025,"Ġbasis":5026,"Ġcouncil":5027,"Ġsequence":5028,"Ġactors":5029,"ĠCard":5030,"ĠWW":5031,"zy":5032,"Ġends":5033,"Ġ177":5034,"Ġast":5035,"ĠReception":5036,"ĠHy":5037,"TC":5038,"anda":5039,"Ġweak":5040,"Ġsquadron":5041,"uses":5042,"ĠGall":5043,"ĠBlue":5044,"Ġprin":5045,"Ġcompar":5046,"Ġadvant":5047,"Ġrear":5048,"Ġabandoned":5049,"ura":5050,"aven":5051,"ĠIrish":5052,"ĠFurther":5053,"Ġrival":5054,"isers":5055,"ĠTech":5056,"ĠSS":5057,"ables":5058,"iated":5059,"Ġprompt":5060,"ĠBab":5061,"Ġkick":5062,"Ġhonor":5063,"Ġflying":5064,"lement":5065,"Ġelev":5066,"Ġenter":5067,"Ġcoal":5068,"Ġbey":5069,"Ġcreating":5070,"ocated":5071,"ĠFam":5072,"ĠJersey":5073,"onc":5074,"ĠSpain":5075,"Ġlaunch":5076,"Ġfilmed":5077,"ĠHarry":5078,"Ġpoll":5079,"BA":5080,"Ġregarded":5081,"Ġhappen":5082,"Ġnormal":5083,"Ġexpansion":5084,"Ġcriticism":5085,"Ġindividuals":5086,"Ġhomes":5087,"ĠCat":5088,"eld":5089,"Ġagreement":5090,"Ġbeyond":5091,"ounger":5092,"ĠUs":5093,"Ġincident":5094,"Ġ178":5095,"Ġspect":5096,"Ġ76":5097,"FA":5098,"Ġspring":5099,"ĠSquare":5100,"Ġdelay":5101,"Ġfailure":5102,"apers":5103,"ĠCa":5104,"Ġliber":5105,"ĠCoast":5106,"Ġevac":5107,"Ġdeploy":5108,"Ġeye":5109,"Ġdismiss":5110,"Ġchair":5111,"Ġsports":5112,"ĠLind":5113,"Ġfamous":5114,"iner":5115,"Ġinte":5116,"Ġvo":5117,"Ġsail":5118,"ĠFe":5119,"Ġmeasure":5120,"Ġ1939":5121,"ĠAre":5122,"ĠSand":5123,"Ġpossibly":5124,"Ġboat":5125,"imet":5126,"Ġhistorical":5127,"Ġnegative":5128,"Ġbodies":5129,"ĠCD":5130,"ima":5131,"ĠUl":5132,"Ġachieved":5133,"Ġmob":5134,"Ġcontact":5135,"ĠBul":5136,"ĠWild":5137,"Ġprogress":5138,"Ġstrike":5139,"Ġsilver":5140,"ifications":5141,"Ġbelieve":5142,"ico":5143,"ĠMul":5144,"ĠPublic":5145,"ĠEnd":5146,"ĠElect":5147,"Ġroles":5148,"ĠBroad":5149,"iny":5150,"ĠProduction":5151,"Ġnarrow":5152,"Ġur":5153,"ĠCy":5154,"Ġkilling":5155,"ĠVen":5156,"Ġretired":5157,"Ġideas":5158,"ĠInstitute":5159,"ĠLy":5160,"ĠIsrael":5161,"ienced":5162,"Ġdrive":5163,"onent":5164,"Ġdisease":5165,"mosp":5166,"iana":5167,"hol":5168,"Ġpet":5169,"Ġtorpedo":5170,"war":5171,"Ġimag":5172,"Ġbriefly":5173,"kins":5174,"Ġ61":5175,"Ġdiam":5176,"ĠArthur":5177,"ĠLiver":5178,"ĠRevolution":5179,"imal":5180,"ĠDue":5181,"Ġ1968":5182,"Ġ1985":5183,"Ġtask":5184,"Ġeffective":5185,"Ġtree":5186,"Ġarmed":5187,"Ġapplic":5188,"Ġarrang":5189,"edom":5190,"Ġtower":5191,"ĠAsh":5192,"Ġ66":5193,"ĠCub":5194,"Ġbudget":5195,"Ġperman":5196,"Ġreceive":5197,"Ġrepeated":5198,"Ġadministration":5199,"Ġgranted":5200,"Ġnecessary":5201,"Ġpersonnel":5202,"Ġroads":5203,"ĠSund":5204,"ocks":5205,"Ġrejected":5206,"ĠMeanwhile":5207,"enger":5208,"Ġtable":5209,"ĠPerson":5210,"ĠRepublican":5211,"Ġtwelve":5212,"ĠClark":5213,"Ġkilometres":5214,"Ġinh":5215,"ĠDoctor":5216,"Ġgross":5217,"Ġimproved":5218,"Ġleadership":5219,"kes":5220,"ĠAlbum":5221,"Ġcolumn":5222,"worth":5223,"Ġinterchange":5224,"Ġyellow":5225,"avalry":5226,"Ġextensive":5227,"aved":5228,"Ġdata":5229,"ĠMir":5230,"ĠOhio":5231,"ĠTy":5232,"iments":5233,"ourney":5234,"Ġstraight":5235,"Ġturns":5236,"Ġlands":5237,"Ġplants":5238,"Ġinfantry":5239,"Ġpurpose":5240,"zil":5241,"Ġparalle":5242,"ĠLes":5243,"Ġmanagement":5244,"ĠBell":5245,"Ġexpress":5246,"Ġdefin":5247,"ĠBoard":5248,"iÄĩ":5249,"Ġseat":5250,"Ġlanding":5251,"och":5252,"oln":5253,"Ġdescribes":5254,"Ġexpanded":5255,"ĠSecretary":5256,"Ġsolo":5257,"Ġfranch":5258,"oma":5259,"Ġchoice":5260,"Ġsuccessfully":5261,"lusion":5262,"Ġmile":5263,"Ġbroken":5264,"adelph":5265,"Ġlearn":5266,"set":5267,"Ġtru":5268,"Ġcrossing":5269,"Ġdidn":5270,"Ġintellig":5271,"Ġanimal":5272,"uate":5273,"Ġ1984":5274,"Ġdeliver":5275,"ĠSa":5276,"ĠEp":5277,"Ġexplos":5278,"ĠPhiladelph":5279,"Ġfought":5280,"gers":5281,"Ġchor":5282,"Ġexcl":5283,"ĠProt":5284,"ĠBru":5285,"ĠRA":5286,"Ġorganized":5287,"Ġcaught":5288,"Ġ800":5289,"erc":5290,"Ġvehicles":5291,"Ġcommissioned":5292,"Ġsuggests":5293,"ĠBurn":5294,"Ġroof":5295,"Ġglob":5296,"ĠEven":5297,"Ġacquired":5298,"haps":5299,"stream":5300,"etball":5301,"Ġplaces":5302,"Ġcommittee":5303,"ĠNever":5304,"rif":5305,"Ġancient":5306,"ev":5307,"Ġdrama":5308,"ĠIS":5309,"ĠHit":5310,"ĠGeorgia":5311,"Ġcreation":5312,"ĠSher":5313,"ĠMov":5314,"ĠCambridge":5315,"Ġtypes":5316,"Ġfat":5317,"appy":5318,"Ġ57":5319,"Ġgives":5320,"ĠLar":5321,"ĠPhiladelphia":5322,"Ġarticle":5323,"Ġcomedy":5324,"Ġseventh":5325,"Ġprefer":5326,"Ġnuclear":5327,"akers":5328,"Ġsoft":5329,"zer":5330,"Ġunsu":5331,"Ġwave":5332,"ms":5333,"Ġ120":5334,"ii":5335,"aith":5336,"etts":5337,"ĠSR":5338,"Ġauthorities":5339,"Ġcontain":5340,"Ġheadquarters":5341,"ĠRel":5342,"ĠAlso":5343,"Ġ1967":5344,"Ġcenturies":5345,"Ġcommonly":5346,"Ġdetermined":5347,"rin":5348,"Ġislands":5349,"Ġgenus":5350,"ns":5351,"Ġroll":5352,"ĠAddition":5353,"Ġmentioned":5354,"attle":5355,"ĠRussia":5356,"ĠMah":5357,"Ġbott":5358,"Ġrecently":5359,"Ġstreet":5360,"Ġtrav":5361,"oted":5362,"umes":5363,"ĠWars":5364,"Ġbeaut":5365,"Ġencoura":5366,"Ġlooking":5367,"ĠGil":5368,"Ġcontrolled":5369,"amin":5370,"Ġfavour":5371,"20":5372,"ipl":5373,"restling":5374,"uan":5375,"ĠCommon":5376,"arts":5377,"oles":5378,"ĠArg":5379,"Ġsets":5380,"Ġfamilies":5381,"ĠAmong":5382,"Ġhousehold":5383,"Ġsecurity":5384,"ĠLiverpool":5385,"Ġaim":5386,"Ġfinds":5387,"Ġadvert":5388,"Ġsand":5389,"Ġdecre":5390,"ĠNintend":5391,"Ġdrop":5392,"Ġsuppor":5393,"Ġacad":5394,"Ġstanding":5395,"va":5396,"Ġla":5397,"Ġillust":5398,"ishes":5399,"ĠLinc":5400,"Ġunp":5401,"uting":5402,"ĠNintendo":5403,"outs":5404,"gn":5405,"ĠChap":5406,"Ġsinging":5407,"Ġwithdraw":5408,"ĠKa":5409,"ĠEarl":5410,"Ġfish":5411,"ĠHay":5412,"Ġdial":5413,"Ġven":5414,"Ġbattalion":5415,"Ġreflect":5416,"ĠJenn":5417,"ĠPrime":5418,"ĠColumbia":5419,"ĠBad":5420,"Ġunique":5421,"Ġsac":5422,"itled":5423,"Ġdeck":5424,"Ġheight":5425,"Ġcontaining":5426,"Ġcultural":5427,"Ġentirely":5428,"Ġorchest":5429,"Ġprotect":5430,"water":5431,"Ġfinish":5432,"ĠLincoln":5433,"oh":5434,"Ġtouchdown":5435,"Ġmist":5436,"ĠSingap":5437,"illing":5438,"Ġcontributed":5439,"ĠAsia":5440,"Ġtry":5441,"Ġthemes":5442,"ĠDevelopment":5443,"ĠKorean":5444,"Ġyounger":5445,"Ġprovides":5446,"Ġdefence":5447,"Ġflooding":5448,"ĠLieutenant":5449,"ĠBrazil":5450,"Ġ1983":5451,"pping":5452,"Ġatmosp":5453,"Ġ58":5454,"ĠChild":5455,"Ġ74":5456,"Ġawards":5457,"room":5458,"Ġtitles":5459,"Ġmis":5460,"ulate":5461,"Ġpurchased":5462,"ĠJewish":5463,"Ġpowers":5464,"inity":5465,"Ġarrival":5466,"ĠHun":5467,"Ġconvers":5468,"Ġscheduled":5469,"Ġdefensive":5470,"ĠFrancisco":5471,"respond":5472,"Ġresemb":5473,"ĠRol":5474,"ĠSingapore":5475,"Ġthing":5476,"Ġaccompanied":5477,"wall":5478,"Ġceremony":5479,"icial":5480,"Ġunus":5481,"Ġquite":5482,"Ġperfect":5483,"Ġ1964":5484,"Ġexpedition":5485,"ĠPeople":5486,"Ġworth":5487,"ĠSix":5488,"wick":5489,"Ġ1969":5490,"atures":5491,"Ġlocations":5492,"Ġexisting":5493,"ĠDark":5494,"ĠHon":5495,"Ġinteract":5496,"Ġadvantage":5497,"Ġperforming":5498,"ĠPot":5499,"ĠCarey":5500,"Ġphilos":5501,"ĠOffice":5502,"rons":5503,"Ġdedicated":5504,"Ġcomputer":5505,"ĠLis":5506,"Ġbat":5507,"acted":5508,"ker":5509,"ĠBor":5510,"ĠDisney":5511,"Ġextrem":5512,"Ġrequest":5513,"laim":5514,"ĠâĪ":5515,"Ġintensity":5516,"Station":5517,"ĠTam":5518,"ĠKey":5519,"Ġstore":5520,"Ġoccupied":5521,"Ġ1914":5522,"dy":5523,"agan":5524,"Ġwhy":5525,"Ġsquad":5526,"Ġ1918":5527,"ĠPlayStation":5528,"Ġfresh":5529,"ĠHMS":5530,"Ġcarry":5531,"Ġmounted":5532,"iling":5533,"ĠOrder":5534,"usc":5535,"ĠKel":5536,"ashion":5537,"Ġnob":5538,"Ġ1982":5539,"ĠTurn":5540,"ta":5541,"Ġfix":5542,"Ġtail":5543,"Ġ1971":5544,"Ġmouth":5545,"ĠAnderson":5546,"ĠBrook":5547,"ĠBalt":5548,"Ġcricket":5549,"Ġmic":5550,"fort":5551,"ĠMot":5552,"ĠSteve":5553,"Ġclosely":5554,"rations":5555,"Ġconsists":5556,"Ġcurrently":5557,"ĠLewis":5558,"mann":5559,"ĠMiller":5560,"Ġlic":5561,"Ġsession":5562,"Ġ1966":5563,"hens":5564,"ĠByz":5565,"Ġ1972":5566,"ĠRadio":5567,"ĠDie":5568,"ĠConference":5569,"yles":5570,"Ġtim":5571,"Ġ1979":5572,"Ġindustrial":5573,"mouth":5574,"Ġegg":5575,"ĠBas":5576,"Ġsimple":5577,"ava":5578,"Ġ59":5579,"Ġelimin":5580,"pper":5581,"Ġvari":5582,"Ġpiano":5583,"ĠOnce":5584,"Ġfacilities":5585,"Ġcold":5586,"ilton":5587,"Ġsupporting":5588,"Ġdrawn":5589,"ĠGrant":5590,"ĠOlympic":5591,"Ġty":5592,"ware":5593,"Ġtrains":5594,"ĠConn":5595,"Ġbelong":5596,"ĠPu":5597,"ĠShak":5598,"Ġprotection":5599,"Ġboats":5600,"ĠBrian":5601,"Ġrated":5602,"Ġrise":5603,"Ġdefined":5604,"Ġselection":5605,"Ġsteam":5606,"Ġharm":5607,"Ġrow":5608,"otic":5609,"Ġ1965":5610,"Ġregions":5611,"iro":5612,"ĠSu":5613,"awa":5614,"ĠBarb":5615,"Ġsubmar":5616,"ĠRailway":5617,"Ġprotected":5618,"Ġcalls":5619,"Ġpros":5620,"Ġhair":5621,"ĠNHL":5622,"Ġ#":5623,"Ġcomic":5624,"ĠEmperor":5625,"Ġmotion":5626,"gest":5627,"verse":5628,"Ġstructures":5629,"Ġthrow":5630,"Ġlap":5631,"Ġaid":5632,"Ġshark":5633,"ĠAtt":5634,"Ġlabor":5635,"Ġfocused":5636,"Ġopportunity":5637,"Ġ99":5638,"Ġ1975":5639,"Ġengaged":5640,"Ġreceiving":5641,"ingly":5642,"iration":5643,"Ġcorrespond":5644,"ĠMu":5645,"Ġshooting":5646,"Ġanalysis":5647,"Ġsport":5648,"Ġcitizens":5649,"Ġmotor":5650,"ba":5651,"Ġobserv":5652,"Ġstrengthen":5653,"ĠGulf":5654,"osa":5655,"Ġnotable":5656,"Ã¸":5657,"sey":5658,"Ġadap":5659,"ĠAv":5660,"ĠJr":5661,"ĠSummer":5662,"uzz":5663,"ĠPress":5664,"ĠWater":5665,"Ġexperienced":5666,"ĠGermans":5667,"ĠHollywood":5668,"ults":5669,"ĠSerb":5670,"ua":5671,"Ġconference":5672,"Ġproviding":5673,"Ġholding":5674,"ĠWalter":5675,"ĠInc":5676,"inger":5677,"Ġvisual":5678,"Ġmountain":5679,"Ġeyes":5680,"ĠHan":5681,"ĠOnly":5682,"Ġ1974":5683,"Ġresident":5684,"olid":5685,"ĠDavis":5686,"ading":5687,"Ġsoutheast":5688,"ĠLab":5689,"Ġmut":5690,"Ġhired":5691,"Ġcharts":5692,"unior":5693,"Ġviewed":5694,"FL":5695,"Ġmerch":5696,"Ġbranch":5697,"heim":5698,"ifically":5699,"inth":5700,"Ġ62":5701,"Ġrapidly":5702,"burgh":5703,"Ġrecognized":5704,"Ġrob":5705,"iler":5706,"Ġ1973":5707,"ĠGib":5708,"Ġvolume":5709,"Ġvac":5710,"opher":5711,"Ġtransform":5712,"Ġalle":5713,"ĠDemocratic":5714,"ĠReview":5715,"Ġprote":5716,"Ġscholars":5717,"Ġ63":5718,"Ġsites":5719,"essed":5720,"Ġgain":5721,"Ġ77":5722,"ĠSpecial":5723,"Ġcasualties":5724,"Ġteach":5725,"Ġhyp":5726,"Ġshared":5727,"Ġconcer":5728,"Ġparallel":5729,"ĠUN":5730,"Ġ73":5731,"ĠJean":5732,"ĠBetween":5733,"Ġpublication":5734,"ĠDown":5735,"Ġcart":5736,"Ġtemperature":5737,"Ġdigital":5738,"ĠFall":5739,"Ġ1976":5740,"Ġmoder":5741,"Ġeconomy":5742,"ĠRome":5743,"ĠBank":5744,"ĠKir":5745,"Ġdeveloping":5746,"Ġsteel":5747,"Ġreaction":5748,"Ġedge":5749,"box":5750,"friend":5751,"standing":5752,"Ġcool":5753,"roll":5754,"ĠPrinc":5755,"Ġintersection":5756,"Ġsymbol":5757,"ali":5758,"zen":5759,"ĠLady":5760,"yer":5761,"Ġapproved":5762,"oncÃ©":5763,"Ġsecondary":5764,"Ġchance":5765,"ĠNap":5766,"ĠProv":5767,"ĠGord":5768,"ĠOb":5769,"Ġvon":5770,"Ġhydro":5771,"omew":5772,"Ġlosses":5773,"Ġmyth":5774,"Ġcontest":5775,"rant":5776,"Ġrac":5777,"rence":5778,"Ġprepared":5779,"Ġsubstant":5780,"ĠMas":5781,"Ġbelief":5782,"itors":5783,"ĠDaily":5784,"ĠTen":5785,"Ġenl":5786,"ĠMusl":5787,"iful":5788,"Ġletters":5789,"ologist":5790,"Ã¡n":5791,"ographic":5792,"ĠWomen":5793,"Ġsignificantly":5794,"Ġwitness":5795,"Ġbands":5796,"Ġsort":5797,"onder":5798,"Ġcard":5799,"Ġsave":5800,"ĠNaz":5801,"Ġdomestic":5802,"ĠSyd":5803,"Ġ250":5804,"Ġfranchise":5805,"Ġknew":5806,"ryst":5807,"Ġgoes":5808,"Ġliterature":5809,"ĠBeyoncÃ©":5810,"eral":5811,"Ġunsuccess":5812,"Ġinstruct":5813,"Ġheads":5814,"achus":5815,"Ġsouthwest":5816,"Ġactress":5817,"Ġtechnology":5818,"Ġsemi":5819,"Ġ67":5820,"Ġadvent":5821,"break":5822,"ora":5823,"Ġdescend":5824,"Ġroughly":5825,"range":5826,"Ġurban":5827,"Ġcab":5828,"asty":5829,"ĠCommand":5830,"ĠBern":5831,"aka":5832,"unte":5833,"ĠPlan":5834,"theless":5835,"Ġpainting":5836,"Ġadult":5837,"Ġlb":5838,"ĠMain":5839,"Ġanything":5840,"Ġcars":5841,"Ġpitch":5842,"Ġprojects":5843,"enc":5844,"Ġassault":5845,"ĠIndust":5846,"ĠColonel":5847,"Ġexact":5848,"ella":5849,"Ġbrothers":5850,"ients":5851,"Ġresistance":5852,"Ġgameplay":5853,"ĠPoint":5854,"Ġcore":5855,"ĠNick":5856,"Ġshape":5857,"Ġstoryline":5858,"ĠWhit":5859,"ĠSupreme":5860,"Ġreasons":5861,"ĠFair":5862,"Ġrules":5863,"iminal":5864,"Ġign":5865,"Ġemployed":5866,"Ġtank":5867,"ĠIV":5868,"ropri":5869,"ĠVar":5870,"ĠKentucky":5871,"Ġdaily":5872,"ĠStation":5873,"Ġshall":5874,"Ġinjured":5875,"Ġ1946":5876,"ĠSpring":5877,"Ġwatched":5878,"Ġ1981":5879,"ati":5880,"Ġagent":5881,"onym":5882,"Ġpopularity":5883,"Ġcomposition":5884,"ĠâĪĴ":5885,"Ġ96":5886,"ira":5887,"ĠCur":5888,"Ġperhaps":5889,"Ġfit":5890,"Ġisol":5891,"Ġadding":5892,"Ġenjoyed":5893,"Ġrenamed":5894,"Ġopinion":5895,"ĠIndepend":5896,"Ġgetting":5897,"omic":5898,"Ġdeclined":5899,"Ġcalc":5900,"oz":5901,"ĠNorway":5902,"agement":5903,"ĠRoss":5904,"Ġcompris":5905,"Ġ68":5906,"Ġreputation":5907,"Ġlov":5908,"Ġnor":5909,"osl":5910,"inking":5911,"ĠTheat":5912,"ĠPrem":5913,"Ġshaped":5914,"Ġ72":5915,"Ġestate":5916,"Ġconnected":5917,"Ġundert":5918,"Ġrend":5919,"Ġretire":5920,"Ġdrew":5921,"Ġ1917":5922,"Ġmuseum":5923,"Ġpoem":5924,"Ġregarding":5925,"bound":5926,"ĠOlympics":5927,"Ġviews":5928,"oir":5929,"ĠMos":5930,"Ġstages":5931,"ulpt":5932,"ĠPhilipp":5933,"Ġconverted":5934,"Ġdry":5935,"ceived":5936,"amm":5937,"ĠGolden":5938,"ĠMassachus":5939,"gal":5940,"ĠWalk":5941,"iform":5942,"ĠBase":5943,"Ġagricult":5944,"han":5945,"Ġallows":5946,"Ġsun":5947,"ĠSel":5948,"ads":5949,"Ġdistingu":5950,"Ġnick":5951,"Ġalternative":5952,"ĠMassachusetts":5953,"ĠBall":5954,"vest":5955,"ĠAbb":5956,"rets":5957,"Ġbed":5958,"ĠImp":5959,"Ġheaded":5960,"igg":5961,"Ġjourney":5962,"Ġ87":5963,"ĠSus":5964,"ĠDream":5965,"athan":5966,"Ġdepth":5967,"ules":5968,"Ġmissing":5969,"Ġcited":5970,"ato":5971,"Ġincreasingly":5972,"eper":5973,"ko":5974,"ĠLet":5975,"osis":5976,"Ġstadium":5977,"ĠRon":5978,"Ġapproached":5979,"Ġ160":5980,"ĠAirport":5981,"Ġturning":5982,"ĠHart":5983,"Ġresponded":5984,"Ġplanning":5985,"Ġknowledge":5986,"Ġexerc":5987,"ĠVi":5988,"Ġeasily":5989,"Ġwealth":5990,"Ġ1948":5991,"Ġoverl":5992,"Ġcells":5993,"ilding":5994,"Ġfashion":5995,"Ġequal":5996,"Ġescort":5997,"olt":5998,"Ġ700":5999,"ĠAbout":6000,"Ġcollected":6001,"Ġsucceeded":6002,"psons":6003,"Ġconstitution":6004,"mod":6005,"eman":6006,"ĠKen":6007,"Ġflu":6008,"Ġsafety":6009,"ĠBal":6010,"Ġrebu":6011,"Ġexistence":6012,"unicip":6013,"Ġtrip":6014,"Ġpul":6015,"ĠRun":6016,"wise":6017,"ignment":6018,"ĠSimpsons":6019,"Ġintroduction":6020,"Ġoccas":6021,"Ġauth":6022,"Ġmodels":6023,"Ġlearned":6024,"ĠInit":6025,"Ġcolle":6026,"Ġsustained":6027,"rett":6028,"hi":6029,"Ġtall":6030,"Ġpromotion":6031,"Ġoperating":6032,"Ġ69":6033,"Ġ1978":6034,"uration":6035,"mitted":6036,"ĠMcG":6037,"Ġbaseball":6038,"Ġcarrying":6039,"Ġlimit":6040,"ĠSongs":6041,"Ġexchange":6042,"Ġshowing":6043,"iger":6044,"Ġyouth":6045,"onia":6046,"ĠImperial":6047,"Ġburied":6048,"engers":6049,"ĠVietnam":6050,"Ġ91":6051,"Ġhumans":6052,"eg":6053,"Ġcredited":6054,"Ġ78":6055,"come":6056,"Ġdepend":6057,"leton":6058,"Ġarranged":6059,"ĠOttoman":6060,"ĠLoc":6061,"Ġimprove":6062,"Ġimpl":6063,"Ġseems":6064,"ĠJay":6065,"Ġweakened":6066,"ĠCape":6067,"Ġdesigns":6068,"Ġ1915":6069,"inary":6070,"Ġvan":6071,"Ġjoint":6072,"ĠShortly":6073,"Ġpaint":6074,"Ġathlet":6075,"state":6076,"istan":6077,"Ġrhy":6078,"Ġproducing":6079,"Ġproceed":6080,"ĠPoland":6081,"eler":6082,"acts":6083,"Ġshel":6084,"ĠSydney":6085,"Ġfreeway":6086,"ĠMoore":6087,"oli":6088,"Ġ1977":6089,"Ġearliest":6090,"Ġflat":6091,"ĠWho":6092,"Ġlasted":6093,"ĠMaryland":6094,"Ġlandfall":6095,"Ġsettlement":6096,"put":6097,"ĠPict":6098,"Ġnote":6099,"ĠRoy":6100,"Ġdescription":6101,"Ġretained":6102,"Ġacres":6103,"Ġbrand":6104,"ĠStew":6105,"Ġton":6106,"Ġ94":6107,"ĠRem":6108,"ĠNaval":6109,"ĠMTV":6110,"ĠAD":6111,"Ġlaws":6112,"Ġappoint":6113,"ĠCra":6114,"ivalent":6115,"Ġgenre":6116,"Ġprograms":6117,"Ġconsc":6118,"ources":6119,"Ġassistant":6120,"Äģ":6121,"rell":6122,"Ġplayoff":6123,"ivered":6124,"ĠJes":6125,"Ġreplace":6126,"ader":6127,"Ġinstall":6128,"bell":6129,"Ġreserve":6130,"issance":6131,"Ġstatement":6132,"Ġvirt":6133,"Ġapplied":6134,"Ġcatch":6135,"Ġtrust":6136,"Ġ1963":6137,"Ġviolence":6138,"Ġneut":6139,"Ġscientific":6140,"insula":6141,"Ġ81":6142,"ĠArts":6143,"Ġentrance":6144,"Ġcoastal":6145,"othes":6146,"ĠPass":6147,"Ġtick":6148,"iege":6149,"Ġhits":6150,"tical":6151,"Ġconsequ":6152,"avig":6153,"Ġ98":6154,"Ġexclus":6155,"Ġsynt":6156,"ĠGreg":6157,"Ġsculpt":6158,"Ġpatrol":6159,"Ġbattery":6160,"math":6161,"ĠFire":6162,"Ġitems":6163,"ĠAri":6164,"Ġcandidate":6165,"Ġtowns":6166,"lee":6167,"Ġindicated":6168,"ĠBowl":6169,"Ġuns":6170,"Ġgradually":6171,"Ġdistribution":6172,"time":6173,"Ġ1916":6174,"ĠEdu":6175,"Ġpolitics":6176,"lan":6177,"ĠRid":6178,"Ġdelivered":6179,"oard":6180,"Ġstopped":6181,"Ġfilled":6182,"Ġban":6183,"Ġindependence":6184,"Ġtact":6185,"izations":6186,"eke":6187,"Ġsections":6188,"Ġdetails":6189,"pet":6190,"ĠJan":6191,"ĠIG":6192,"ĠConfeder":6193,"ĠMulder":6194,"eless":6195,"Ġcinem":6196,"Ġselect":6197,"Å¡":6198,"Ġcombination":6199,"mun":6200,"Ġ71":6201,"Ġemp":6202,"Ġsupplies":6203,"Ġways":6204,"Ġglass":6205,"Ġparties":6206,"ender":6207,"ÅĤ":6208,"Ġstream":6209,"Ġengines":6210,"ushing":6211,"Ġprisoners":6212,"Ġcamera":6213,"ĠGordon":6214,"Ġappeal":6215,"ĠStadium":6216,"ĠAC":6217,"ĠBand":6218,"Ġ1919":6219,"Ġregister":6220,"ĠRhodes":6221,"Ġcampus":6222,"Ġbask":6223,"emies":6224,"ĠWell":6225,"Ġ1962":6226,"Ġacts":6227,"Ġmig":6228,"ĠBon":6229,"Ġextremely":6230,"Ġ89":6231,"Ġentitled":6232,"Ġsecure":6233,"reets":6234,"rec":6235,"ela":6236,"ĠRa":6237,"Ġfinding":6238,"AT":6239,"Ġonline":6240,"Ġdecade":6241,"inois":6242,"ĠUnivers":6243,"Ġtal":6244,"ĠProf":6245,"poration":6246,"iques":6247,"ĠTheatre":6248,"acter":6249,"Ġwinner":6250,"ĠStaff":6251,"iversary":6252,"Ġ82":6253,"Ġarc":6254,"ropol":6255,"Ġevening":6256,"ĠCop":6257,"Ġregiment":6258,"Ġ1938":6259,"ĠKim":6260,"Ġinvestigation":6261,"Ġ88":6262,"Ġthreatened":6263,"Ġbought":6264,"Ġmessage":6265,"Ġadapted":6266,"Ġsomew":6267,"Ġsurvived":6268,"Ġknots":6269,"Ġconsum":6270,"Ġstudied":6271,"ĠBir":6272,"ĠAnth":6273,"Ġproposal":6274,"ador":6275,"Ġwrites":6276,"Ġaddress":6277,"ashed":6278,"ĠVill":6279,"Ġdeaths":6280,"ĠJustice":6281,"iat":6282,"Ġroutes":6283,"Ġwars":6284,"ja":6285,"Ġdownload":6286,"Ġruled":6287,"Ġfear":6288,"ĠNic":6289,"ĠInstead":6290,"Ġrelief":6291,"Ġreligion":6292,"Ġmales":6293,"Ġreduce":6294,"Ġvoted":6295,"BS":6296,"ighters":6297,"ieval":6298,"ano":6299,"Ġrevolution":6300,"Ġspecifically":6301,"Ġspons":6302,"Ġcrown":6303,"Ġphase":6304,"met":6305,"Ġduty":6306,"Ġfict":6307,"phoon":6308,"Ġkingdom":6309,"ĠAge":6310,"Ġrecalled":6311,"bourne":6312,"Ġec":6313,"Ġportrayed":6314,"Ġsoul":6315,"Ġimplement":6316,"ctions":6317,"ĠCirc":6318,"Ġcontroversy":6319,"Ġemerg":6320,"ĠHere":6321,"ĠMemorial":6322,"hat":6323,"Ġcauses":6324,"BN":6325,"ĠAst":6326,"ervative":6327,"Ġet":6328,"Ġble":6329,"Ġ1956":6330,"Ġeverything":6331,"Ġbreeding":6332,"apes":6333,"adow":6334,"chers":6335,"aug":6336,"Ġsell":6337,"Ġstret":6338,"Ġ130":6339,"Ġreferences":6340,"Ġ175":6341,"ician":6342,"Ġbottom":6343,"Ġago":6344,"Ġcapable":6345,"ĠTony":6346,"Ġconvin":6347,"Ġteacher":6348,"Ġimportance":6349,"ĠPo":6350,"ĠColl":6351,"Ġentry":6352,"Ġmeters":6353,"ĠMcK":6354,"ĠSingles":6355,"Ġoffers":6356,"ĠId":6357,"ĠNel":6358,"ĠKong":6359,"Ġtanks":6360,"ĠOd":6361,"Ġ79":6362,"senal":6363,"ĠPower":6364,"bro":6365,"ĠUr":6366,"Ġsufficient":6367,"ĠDirector":6368,"entially":6369,"Ġowner":6370,"Ġinternal":6371,"Ġarrested":6372,"Ġopera":6373,"ridges":6374,"ĠAdams":6375,"Ġadmitted":6376,"Ġnomination":6377,"arp":6378,"ĠOk":6379,"Ġcorner":6380,"Ġbor":6381,"ĠJord":6382,"ĠMoon":6383,"Ġcopy":6384,"ĠAlan":6385,"Ġ1936":6386,"ĠFA":6387,"Ġcrossed":6388,"Ġclimb":6389,"Ġproducts":6390,"ĠDougl":6391,"wich":6392,"uro":6393,"ĠCritical":6394,"bar":6395,"Ġinstalled":6396,"Ġequipped":6397,"ĠBeach":6398,"ĠAlf":6399,"ĠIGN":6400,"Ġpreced":6401,"Ġconcerns":6402,"aki":6403,"Ġmort":6404,"Ġoverse":6405,"Ġautom":6406,"ĠHamilton":6407,"Ġinvited":6408,"ĠSimon":6409,"ĠMaria":6410,"ĠEngine":6411,"Ġconvoy":6412,"Ġones":6413,"Ġconqu":6414,"Ġinterested":6415,"Ġstarts":6416,"ĠAdam":6417,"Ġcrime":6418,"Ġprincipal":6419,"Ġfly":6420,"ĠGram":6421,"Ġacid":6422,"ranean":6423,"Ġtell":6424,"ĠYour":6425,"Ġrecommended":6426,"hr":6427,"Ġalt":6428,"andy":6429,"ĠJane":6430,"Ġunl":6431,"ructure":6432,"ĠPlot":6433,"Ġremainder":6434,"Ġmedal":6435,"Ġshut":6436,"ansas":6437,"Ġactual":6438,"ca":6439,"Ġsnow":6440,"Ġretreat":6441,"ĠUTC":6442,"Ġstock":6443,"Ġvent":6444,"Ġupgrad":6445,"espread":6446,"Ġcharged":6447,"ĠVII":6448,"Ġsolid":6449,"Ġapart":6450,"ĠBos":6451,"Ġprice":6452,"Ġfunds":6453,"Ġobjects":6454,"ĠCart":6455,"Ġdoor":6456,"ĠTrack":6457,"Ġ1961":6458,"ĠForest":6459,"osaurus":6460,"ilation":6461,"Ġcomposer":6462,"vis":6463,"Ġ84":6464,"Ġfemales":6465,"ĠVideo":6466,"Ġconsisting":6467,"Ġgall":6468,"aked":6469,"Ġpromote":6470,"ĠDeath":6471,"Ġpage":6472,"Ġmilit":6473,"iy":6474,"ĠNBA":6475,"ĠIndones":6476,"Ġconsiderable":6477,"mb":6478,"ĠFound":6479,"ĠProg":6480,"Ġdates":6481,"Ġpoly":6482,"ĠInt":6483,"iller":6484,"hus":6485,"ĠNether":6486,"ĠGen":6487,"Ġ1953":6488,"Ġtypical":6489,"Ġgrounds":6490,"ĠKennedy":6491,"erted":6492,"ĠGun":6493,"Ġcorrect":6494,"ĠToday":6495,"Ġduties":6496,"Ġextension":6497,"Ġblow":6498,"cks":6499,"rete":6500,"Ġevolution":6501,"Ġ93":6502,"Ġsomeone":6503,"ĠTransport":6504,"Ġcong":6505,"Ġrural":6506,"Ġpenal":6507,"ĠMilitary":6508,"ĠSunday":6509,"Ġeighth":6510,"BI":6511,"vements":6512,"ĠIndiana":6513,"Ġspin":6514,"Ġsole":6515,"ĠProject":6516,"Ġhotel":6517,"ĠHoward":6518,"osite":6519,"Ġdecades":6520,"ĠNorwe":6521,"king":6522,"Ġimages":6523,"ĠPit":6524,"Ġdriving":6525,"Ġreading":6526,"Ġidentity":6527,"ĠScully":6528,"ĠHou":6529,"Ġzone":6530,"ĠMarc":6531,"add":6532,"Ġoccurs":6533,"hetic":6534,"ĠLeon":6535,"Ġmanner":6536,"ĠBry":6537,"Ġsubs":6538,"Ġskin":6539,"Ġchallenge":6540,"ĠHitler":6541,"Ġlane":6542,"Ġremix":6543,"Ġtow":6544,"ĠKat":6545,"Ġaspects":6546,"Ġpermanent":6547,"Ġaer":6548,"ĠTar":6549,"Ġbrigade":6550,"ĠTa":6551,"Ġfrag":6552,"Ġ1947":6553,"Ġvolcan":6554,"Ġdated":6555,"Ġham":6556,"Ġ1958":6557,"ĠCult":6558,"ĠFive":6559,"ĠGill":6560,"Ġvir":6561,"ĠPortug":6562,"Ġnoting":6563,"Ġrestaur":6564,"ĠBrist":6565,"Ġcolour":6566,"ez":6567,"after":6568,"ione":6569,"ĠDrag":6570,"ubb":6571,"Ġsupporters":6572,"ĠWWE":6573,"Ġslowly":6574,"Ġclean":6575,"ĠBa":6576,"Ġposted":6577,"ĠPear":6578,"Ġ86":6579,"ensus":6580,"ĠTurk":6581,"ivals":6582,"ĠRose":6583,"iley":6584,"Ġ1957":6585,"Ġ1910":6586,"veland":6587,"cknow":6588,"ĠScience":6589,"Ġdescribing":6590,"ĠResearch":6591,"Ġinvolving":6592,"Ġ110":6593,"Ġspeak":6594,"Ġvessels":6595,"Ġentering":6596,"Ġenemies":6597,"Ġ1937":6598,"ĠAssembly":6599,"Ġdress":6600,"Ġequivalent":6601,"aware":6602,"ĠRyan":6603,"ĠHug":6604,"Ġclasses":6605,"Ġbra":6606,"Ġdebate":6607,"Ġsettled":6608,"nic":6609,"Ġdin":6610,"ĠAk":6611,"Ġdepartment":6612,"Ġobtained":6613,"ĠConstitution":6614,"regon":6615,"Ġaccur":6616,"Ġarmor":6617,"Ġparliament":6618,"ĠRolling":6619,"ĠDisc":6620,"erto":6621,"ĠMagazine":6622,"Ġtele":6623,"ĠMountain":6624,"ĠArgent":6625,"Ġsongwrit":6626,"Ġbasic":6627,"risis":6628,"Ġpurchase":6629,"agues":6630,"fl":6631,"Ġpup":6632,"Ġfolk":6633,"Ġnest":6634,"Ġoldest":6635,"ĠCleveland":6636,"Ġfaith":6637,"ĠSpace":6638,"ĠPier":6639,"ĠLenn":6640,"Ġconcerned":6641,"Ġdeparture":6642,"Ġwidespread":6643,"Ġdecline":6644,"Ġformal":6645,"Ġconnection":6646,"ĠIllinois":6647,"cation":6648,"ophy":6649,"Ġincome":6650,"Ġattached":6651,"hered":6652,"Ġrecognition":6653,"ĠNow":6654,"Ġinteg":6655,"ĠDouglas":6656,"Ġmemorial":6657,"Ġouter":6658,"ĠThroughout":6659,"Ġcertified":6660,"heastern":6661,"Ġdeleg":6662,"Ġaccused":6663,"Ġsequel":6664,"Ġ<":6665,"orney":6666,"ĠWeekly":6667,"Ġderived":6668,"Ġdecor":6669,"ĠSav":6670,"rates":6671,"Ġmode":6672,"ĠIra":6673,"Ġha":6674,"ĠStand":6675,"ĠRele":6676,"aret":6677,"ĠAndy":6678,"Ġwearing":6679,"ĠJordan":6680,"Ġhip":6681,"Ġassumed":6682,"Ġdisturb":6683,"Ġswim":6684,"icit":6685,"western":6686,"Ġwed":6687,"ĠOregon":6688,"Ġ1959":6689,"Ġacknow":6690,"ĠStanley":6691,"Ġtorn":6692,"ĠFreder":6693,"ĠâĢĿ":6694,"Ġacclaim":6695,"ooth":6696,"Ġsurvey":6697,"Ġcommitted":6698,"iot":6699,"Ġfoss":6700,"ĠArsenal":6701,"ĠMedia":6702,"ĠFeder":6703,"Ġhosted":6704,"RA":6705,"ĠThird":6706,"Ġreturns":6707,"Ġvalley":6708,"Ġsegment":6709,"ĠRoger":6710,"Ġsessions":6711,"ekend":6712,"ĠDal":6713,"Ġpopulations":6714,"ĠPhilip":6715,"agonist":6716,"Ġdenied":6717,"Ġfine":6718,"ĠMediter":6719,"ĠTreat":6720,"ĠRecording":6721,"Ġtemple":6722,"ĠFamily":6723,"Ġhang":6724,"wan":6725,"Ġchampion":6726,"Ġflo":6727,"ĠBeatles":6728,"Ġcharges":6729,"ĠTenn":6730,"ĠLow":6731,"Ġliterary":6732,"ĠBruce":6733,"ĠKevin":6734,"Ġcanc":6735,"Ġregional":6736,"Ġthousands":6737,"ĠNorwegian":6738,"Ġ1954":6739,"Ġterminus":6740,"Ġtransition":6741,"Ġ1955":6742,"ĠMediterranean":6743,"Ġcircum":6744,"iva":6745,"Ġsupposed":6746,"Ġwarm":6747,"Ġwickets":6748,"ĠBristol":6749,"ĠâĢľ":6750,"Ġdemand":6751,"ĠEs":6752,"ĠDig":6753,"Ġans":6754,"ĠAz":6755,"Ġshots":6756,"hedral":6757,"ĠISBN":6758,"ĠRain":6759,"udden":6760,"Ġstrongly":6761,"heme":6762,"achel":6763,"Ġcirculation":6764,"ĠBush":6765,"Ġintelligence":6766,"Ġsailed":6767,"Ġpossibility":6768,"Ġpassengers":6769,"Ġgeneration":6770,"IA":6771,"Ġhope":6772,"Ġfictional":6773,"emed":6774,"Ġanimated":6775,"Ġthirty":6776,"Ġfreedom":6777,"Ġdowntown":6778,"ĠHo":6779,"ĠChannel":6780,"organ":6781,"ĠFederal":6782,"eing":6783,"ito":6784,"Ġhill":6785,"Ġrich":6786,"Ġminister":6787,"Ġbehavior":6788,"Ġcloud":6789,"ĠMexican":6790,"rage":6791,"ĠÃĹ":6792,"CA":6793,"Ġassistance":6794,"Ġreplacement":6795,"Ġbegun":6796,"ĠPur":6797,"Ġfruit":6798,"ami":6799,"Ġcommanded":6800,"ĠWeb":6801,"Ġdestruction":6802,"atinum":6803,"Ġmoves":6804,"mes":6805,"ĠBol":6806,"Ġcriminal":6807,"char":6808,"Ġmissed":6809,"Ġmissions":6810,"ĠConc":6811,"Ġcosts":6812,"Ġexception":6813,"ĠDer":6814,"Ġcrash":6815,"orced":6816,"ĠRow":6817,"upt":6818,"Ġhighlight":6819,"Ġbringing":6820,"Ġtied":6821,"ĠMaster":6822,"ĠCas":6823,"lig":6824,"ĠEric":6825,"Ġcommit":6826,"isms":6827,"ĠKorea":6828,"ĠWithin":6829,"Ġintention":6830,"Ġfeeling":6831,"onto":6832,"Ġspeaking":6833,"ĠBah":6834,"Ġunusual":6835,"ĠLisa":6836,"oral":6837,"elsh":6838,"ĠAdditionally":6839,"ĠFame":6840,"Ġintercept":6841,"Ġfinishing":6842,"Ġalleged":6843,"lets":6844,"ĠNar":6845,"Ġdemol":6846,"Ġproperties":6847,"Ġincorporated":6848,"Ġopposite":6849,"Ġstayed":6850,"ĠSab":6851,"Ġattributed":6852,"Ġshop":6853,"ĠPhill":6854,"Ġvolunte":6855,"Ġrecovered":6856,"borne":6857,"Ġsons":6858,"ĠColor":6859,"Ġbreaking":6860,"Ġemerged":6861,"Ġ83":6862,"Ġserves":6863,"Ġ1952":6864,"Ġatmosphere":6865,"ĠMorgan":6866,"ĠMorris":6867,"Ġdipl":6868,"Ġchorus":6869,"Ġtheatre":6870,"ĠNorman":6871,"Ġoccasionally":6872,"rating":6873,"Ġdriven":6874,"othing":6875,"olec":6876,"ĠScient":6877,"aire":6878,"ĠEle":6879,"Ġstrateg":6880,"ĠRobinson":6881,"ĠKr":6882,"enses":6883,"umin":6884,"ĠEver":6885,"riers":6886,"Ġclassic":6887,"Ġspok":6888,"Ġready":6889,"ĠPrior":6890,"Ġeffectively":6891,"Ġregularly":6892,"aza":6893,"Ġcavalry":6894,"Ġ92":6895,"Ġestablishment":6896,"ĠSky":6897,"Ġprey":6898,"Ġcourts":6899,"Ġmethods":6900,"ĠRaj":6901,"Ġsounds":6902,"thm":6903,"Ġvary":6904,"Ġ1933":6905,"oslav":6906,"ĠHawai":6907,"Ġdivers":6908,"ogen":6909,"ĠTelevision":6910,"Ġsuperv":6911,"ĠSimilar":6912,"Ġ176":6913,"don":6914,"pective":6915,"Ġdream":6916,"ĠAround":6917,"Ġcompletion":6918,"Ġshore":6919,"ĠUnlike":6920,"Ġmaterials":6921,"ĠCE":6922,"ĠConstruction":6923,"ĠGh":6924,"uty":6925,"Ġresponsibility":6926,"Ġdissip":6927,"Ġwarning":6928,"ĠUSA":6929,"Ġaccommod":6930,"wen":6931,"ĠCab":6932,"ĠFinn":6933,"Ġheat":6934,"Ġattracted":6935,"Ġfields":6936,"Ġsurviving":6937,"Ġprovince":6938,"Ġentertain":6939,"Ġpersu":6940,"ĠNelson":6941,"ĠIron":6942,"rim":6943,"Ġglobal":6944,"nold":6945,"ece":6946,"ĠNich":6947,"ĠFrancis":6948,"Ġmo":6949,"Ġquant":6950,"Ġclassified":6951,"Ġkid":6952,"sole":6953,"Ġdifferences":6954,"ĠPremier":6955,"ĠDE":6956,"ĠLanc":6957,"icks":6958,"Ġdivisions":6959,"Ġtechnical":6960,"vens":6961,"ĠSweden":6962,"Ġinterpret":6963,"Ġbrain":6964,"Ġ1935":6965,"ban":6966,"ĠFord":6967,"ĠTechn":6968,"Ġcruiser":6969,"ĠPatrick":6970,"ĠBudd":6971,"ipe":6972,"Ġpassage":6973,"emeter":6974,"abled":6975,"ĠAnton":6976,"Ġaboard":6977,"Ġnone":6978,"ĠMit":6979,"inton":6980,"Ġsam":6981,"oyd":6982,"ĠPA":6983,"ĠTemple":6984,"weight":6985,"Ġclubs":6986,"Ġstood":6987,"Ġassociation":6988,"Ġratings":6989,"Ġneither":6990,"Ġeleven":6991,"Ġmusicians":6992,"Ġrooms":6993,"nce":6994,"Ġ1951":6995,"Ġ1949":6996,"Ġmedic":6997,"Ġreinforce":6998,"idden":6999,"omot":7000,"ĠHell":7001,"Ġdesire":7002,"nings":7003,"Ġhal":7004,"Ġseparated":7005,"ĠToronto":7006,"ĠWelsh":7007,"Ġclimate":7008,"ĠAnne":7009,"agle":7010,"Ġsqu":7011,"ĠNations":7012,"Ġshif":7013,"Ġoutbreak":7014,"Ġclassification":7015,"Ġancest":7016,"ĠDog":7017,"Ã³n":7018,"Ġvehicle":7019,"ĠMarg":7020,"Ġreality":7021,"Ġpredecess":7022,"Ġseemed":7023,"ĠByzantine":7024,"Ġchemical":7025,"Ġvotes":7026,"Ġpicture":7027,"teenth":7028,"ĠAllen":7029,"Ġbattleships":7030,"Ġrose":7031,"ĠChron":7032,"Ġmemory":7033,"Ġhoped":7034,"ici":7035,"ĠProfess":7036,"ji":7037,"Ġmovements":7038,"Ġment":7039,"Ġrequested":7040,"ĠOpen":7041,"ĠNetherlands":7042,"ĠJournal":7043,"ĠBelg":7044,"ogy":7045,"Ġraise":7046,"Ġhistorians":7047,"Ġille":7048,"ĠEvery":7049,"ĠMatthew":7050,"ĠSn":7051,"ĠPow":7052,"burn":7053,"Ġmap":7054,"Ġdifficulty":7055,"reck":7056,"Ġbasketball":7057,"inder":7058,"ĠWhe":7059,"ewhere":7060,"ige":7061,"Ġexpect":7062,"Ġvide":7063,"abil":7064,"Ġcommunities":7065,"Ġrestored":7066,"Ġraid":7067,"Ġteen":7068,"Ġremember":7069,"ĠBang":7070,"ĠSports":7071,"Ġprogramme":7072,"ĠJews":7073,"Ġpremiere":7074,"Ġpure":7075,"ĠDean":7076,"har":7077,"Ġfal":7078,"Ġdelayed":7079,"ĠJacob":7080,"Ġfer":7081,"Ġrelative":7082,"Ġinspiration":7083,"ĠSax":7084,"Ġdiscovery":7085,"Ġgal":7086,"Ġotherwise":7087,"Ġgreatly":7088,"ĠUSS":7089,"Ġanniversary":7090,"Ġinjuries":7091,"ĠDesign":7092,"ĠAgain":7093,"Ġneighbor":7094,"Ġaccounts":7095,"Ġsatisf":7096,"hire":7097,"Ġfunding":7098,"Ġsurrounded":7099,"Ġflank":7100,"ĠDomin":7101,"Ġdepict":7102,"Ġpraise":7103,"ĠUlt":7104,"Ġpenalty":7105,"Ġspoke":7106,"ilers":7107,"Ġbatting":7108,"Ġneeds":7109,"Ġ1900":7110,"ĠIraq":7111,"iate":7112,"Ġdens":7113,"Ġstrate":7114,"Ġdie":7115,"Ġpartner":7116,"Ġcrop":7117,"ĠWright":7118,"ĠMarine":7119,"Ġmassive":7120,"Ġweapon":7121,"Ġphotograph":7122,"Ġrecru":7123,"Ġclaiming":7124,"Ġcra":7125,"ĠDor":7126,"anth":7127,"ĠBishop":7128,"Ġsuit":7129,"Ġassemb":7130,"Ġlat":7131,"Ġastron":7132,"Ġtries":7133,"Ġforming":7134,"Ġstrategy":7135,"Ġwrong":7136,"real":7137,"Ġlegend":7138,"ĠOak":7139,"Ġaccompl":7140,"Ġdocumentary":7141,"ĠArmen":7142,"Ġfled":7143,"Ġcrosses":7144,"ĠGlob":7145,"Ġworst":7146,"ĠHop":7147,"ĠCroatian":7148,"ĠHeart":7149,"ĠDa":7150,"Ġstands":7151,"gets":7152,"ĠThompson":7153,"Ġarchitecture":7154,"Ġash":7155,"ĠLast":7156,"uther":7157,"Ġtemporary":7158,"ĠJam":7159,"Ġgirls":7160,"uble":7161,"Ġdetermine":7162,"Ġchairman":7163,"ĠDick":7164,"ĠRussell":7165,"Ġdismissed":7166,"aired":7167,"ĠIslam":7168,"Ġinvolvement":7169,"ĠStra":7170,"Ġbombard":7171,"Ġsale":7172,"Ġcategory":7173,"ĠTrib":7174,"Ġrot":7175,"formula":7176,"Ġplane":7177,"ĠCentre":7178,"Ġinner":7179,"Ġremn":7180,"Ġadaptation":7181,"ĠMars":7182,"Ġhear":7183,"rum":7184,"onds":7185,"going":7186,"Ġensure":7187,"Ġconvinced":7188,"Ġsight":7189,"Ġenf":7190,"lyn":7191,"Ġcul":7192,"ĠNC":7193,"Ġweekend":7194,"Ġ06":7195,"ĠHoly":7196,"ĠNFL":7197,"ĠPuerto":7198,"ĠFront":7199,"Ġresources":7200,"Ġsomewhat":7201,"Ġreserv":7202,"ĠCarter":7203,"Ġinterests":7204,"ĠWinter":7205,"ĠRick":7206,"wing":7207,"Ġscheme":7208,"Ġmedieval":7209,"Ġimmediate":7210,"ĠKelly":7211,"ĠHend":7212,"Ġstreets":7213,"agre":7214,"Ġpresidential":7215,"ĠModern":7216,"Ġlibrary":7217,"ĠKer":7218,"Ġray":7219,"oster":7220,"Ġcarbon":7221,"Ġabsor":7222,"Ġconsp":7223,"ĠCooper":7224,"body":7225,"Ġic":7226,"ĠSpe":7227,"itzer":7228,"po":7229,"Ġfalling":7230,"Ġcolonial":7231,"ĠDra":7232,"ĠAlong":7233,"Ġtechniques":7234,"Ġori":7235,"Ġclassical":7236,"Ġsed":7237,"Ġfighter":7238,"Ġninth":7239,"ĠNiel":7240,"ĠRang":7241,"Ġappropri":7242,"Ġthrone":7243,"ĠGard":7244,"Ġstarred":7245,"Ġeggs":7246,"ĠBrother":7247,"Ġacademic":7248,"ĠFree":7249,"ĠNetwork":7250,"Ġraces":7251,"Ġbright":7252,"icide":7253,"aya":7254,"Ġadults":7255,"ĠPak":7256,"Ġconvent":7257,"Ġcommemor":7258,"Ġpassenger":7259,"Ã±":7260,"Ġsurviv":7261,"Ġloyal":7262,"ĠHungarian":7263,"ĠNob":7264,"Ġmeets":7265,"Ġlake":7266,"night":7267,"ĠWy":7268,"ĠGri":7269,"Ġreviewer":7270,"ester":7271,"Ġalien":7272,"ĠThus":7273,"Ġ1913":7274,"Ġpremiered":7275,"Ġsubmarine":7276,"rine":7277,"ĠBou":7278,"Ġabsence":7279,"ĠBatman":7280,"bec":7281,"wealth":7282,"Ġseeing":7283,"Ġrenew":7284,"á»":7285,"Ġfitted":7286,"ĠLabor":7287,"Ġelse":7288,"Ġsuperior":7289,"osure":7290,"Ġinterior":7291,"arsh":7292,"Ġfavorite":7293,"ĠParker":7294,"Ġengineer":7295,"ronze":7296,"Ġdub":7297,"PA":7298,"ĠEst":7299,"Ġairport":7300,"Ġpartn":7301,"ĠTok":7302,"Ġdeemed":7303,"Ġattacking":7304,"ĠHarris":7305,"omp":7306,"Ġconclusion":7307,"Ġappearing":7308,"acent":7309,"Ġvisible":7310,"ĠBi":7311,"Ġ1926":7312,"Ġdating":7313,"ivan":7314,"Ġsynthes":7315,"using":7316,"Ġcharacteristics":7317,"Ġromantic":7318,"Ġx":7319,"Ġleads":7320,"Ġelections":7321,"Ġrum":7322,"Ġoperate":7323,"Ġfacility":7324,"Ġencouraged":7325,"Ġ1927":7326,"Ġmunicip":7327,"ĠLibrary":7328,"Ġafterwards":7329,"Ġretirement":7330,"ĠDNA":7331,"Ġlanded":7332,"book":7333,"Ġcolony":7334,"Ġconvection":7335,"ĠMurray":7336,"Ġtemperatures":7337,"Ġbuy":7338,"Ġ1921":7339,"Ġeveryone":7340,"chang":7341,"ĠAI":7342,"Ġdoct":7343,"oen":7344,"Ġsuffering":7345,"Ġcredit":7346,"Ġ1934":7347,"Ġlegislation":7348,"Ġholds":7349,"ĠKnight":7350,"Ġmodified":7351,"Ġlies":7352,"Ġchalleng":7353,"ĠEducation":7354,"ĠTs":7355,"ĠLate":7356,"aver":7357,"Ġpainted":7358,"Ġcontroversial":7359,"Ġwings":7360,"eor":7361,"Ġsan":7362,"Ġgone":7363,"ĠâĤ":7364,"ania":7365,"roit":7366,"ossible":7367,"ĠHouston":7368,"Ġbelieves":7369,"ixon":7370,"Ġcode":7371,"urches":7372,"Ġdistributed":7373,"Ġod":7374,"ĠBrand":7375,"ĠCommander":7376,"Ġattempting":7377,"Ġ08":7378,"ĠPolice":7379,"asure":7380,"ĠBerlin":7381,"ĠPalace":7382,"uster":7383,"Ġstandards":7384,"Ġlooked":7385,"Ġrescue":7386,"Ġ900":7387,"Ġauthors":7388,"Ġsecured":7389,"ĠAdvent":7390,"Ġmonarch":7391,"Ġdepicted":7392,"Ġ1912":7393,"tic":7394,"ĠUt":7395,"Ġcancer":7396,"Ġarchae":7397,"Ġdominated":7398,"ĠFI":7399,"Ġbattleship":7400,"ache":7401,"Ġgrass":7402,"Ġhabitat":7403,"ĠÅ":7404,"Ġanyone":7405,"scape":7406,"apse":7407,"ĠYug":7408,"Ġcontinuing":7409,"coming":7410,"Ġjudge":7411,"Ġwel":7412,"Ġlongest":7413,"Ġimmig":7414,"ĠStory":7415,"ĠSanta":7416,"eline":7417,"aws":7418,"Ġbiggest":7419,"ĠSwedish":7420,"li":7421,"ĠCommonwealth":7422,"Ġunsuccessful":7423,"Ġunion":7424,"Ġgraphics":7425,"ĠGet":7426,"Ġpound":7427,"encies":7428,"Ġneck":7429,"Ġobtain":7430,"ĠLi":7431,"ĠSimpson":7432,"ĠRoberts":7433,"Ġtrained":7434,"ĠOt":7435,"ĠYan":7436,"Ġsudden":7437,"Ġwins":7438,"ĠHospital":7439,"Ġ1932":7440,"ultane":7441,"inals":7442,"ĠObs":7443,"Ġjump":7444,"Ġarrangement":7445,"Ġcarrier":7446,"aska":7447,"Ġrailroad":7448,"owa":7449,"ĠIndians":7450,"ĠEy":7451,"Ġacknowled":7452,"ĠLyn":7453,"ĠSilver":7454,"Ġnickn":7455,"ĠMort":7456,"oming":7457,"opes":7458,"Ġinformed":7459,"Ġmeasures":7460,"eenth":7461,"ĠCook":7462,"hess":7463,"ĠRAAF":7464,"Ġbelt":7465,"Ġrepresenting":7466,"emetery":7467,"Ġreleases":7468,"ĠCorporation":7469,"Ġachieve":7470,"ĠSocial":7471,"ĠNBC":7472,"ĠWarner":7473,"ternal":7474,"ching":7475,"Ġsees":7476,"Ġ09":7477,"ĠMerc":7478,"Ġgarrison":7479,"ĠYugoslav":7480,"Ġconvention":7481,"ture":7482,"una":7483,"Ġformerly":7484,"ĠJason":7485,"Ġgrade":7486,"Ġbab":7487,"Ġgenerated":7488,"Ġstyles":7489,"Ġcloser":7490,"Ġdeployed":7491,"Ġemergency":7492,"ĠAnthony":7493,"Ġbats":7494,"Ġalleg":7495,"tenance":7496,"elle":7497,"Ġquestions":7498,"olph":7499,"Ġmoderate":7500,"fare":7501,"Ġhistoric":7502,"Ġgets":7503,"Ġveter":7504,"Ġtrials":7505,"Ġfestival":7506,"Ġcycle":7507,"Ġmolec":7508,"hemat":7509,"Ġster":7510,"Ġsiege":7511,"Ġinfluential":7512,"ĠCru":7513,"Ġemotional":7514,"ĠHin":7515,"ĠCroatia":7516,"ĠDetroit":7517,"ĠTal":7518,"otype":7519,"Ġowners":7520,"Ġnovels":7521,"uts":7522,"agu":7523,"ĠRAF":7524,"Ġsuccessor":7525,"Ġinfluences":7526,"Ġnarrative":7527,"ĠGaga":7528,"Ġ1929":7529,"aria":7530,"ĠBure":7531,"Ġthin":7532,"ĠChamber":7533,"aints":7534,"Ġstead":7535,"Ġru":7536,"Ġ1911":7537,"Ġeat":7538,"Ġexcess":7539,"Ġjournalist":7540,"ĠAuthor":7541,"Ġchildhood":7542,"ĠGilbert":7543,"Ġconstant":7544,"Ġexperiences":7545,"mate":7546,"Ġpregn":7547,"Ġdefended":7548,"Ġveget":7549,"Ġdiscussed":7550,"ĠPrincess":7551,"Ġlegs":7552,"Ġapparently":7553,"Ġalco":7554,"Ġinstruments":7555,"ĠRap":7556,"Ġassass":7557,"ĠSpears":7558,"Ġ140":7559,"Ġvictims":7560,"Ġtreated":7561,"Ġgiant":7562,"ĠPC":7563,"Ġenvironmental":7564,"Ġdiplom":7565,"fire":7566,"arked":7567,"Ġexecuted":7568,"imore":7569,"Ġdetail":7570,"ĠAsian":7571,"Ġcoins":7572,"Ġ1931":7573,"Ġ1922":7574,"Ġdepos":7575,"anny":7576,"Ġoffices":7577,"obi":7578,"Ġfactors":7579,"30":7580,"Ġmine":7581,"ĠJesus":7582,"yard":7583,"usted":7584,"iens":7585,"Ġbear":7586,"Ġconcur":7587,"rams":7588,"ĠDesc":7589,"achment":7590,"Ġenters":7591,"Ġhunting":7592,"ĠSomers":7593,"Ġwooden":7594,"ĠMelbourne":7595,"noon":7596,"ĠEvans":7597,"ĠNielsen":7598,"ĠPope":7599,"ĠAtlant":7600,"aste":7601,"Ġchannel":7602,"Ġhundreds":7603,"Ġride":7604,"ĠVice":7605,"Ġresigned":7606,"ĠGuy":7607,"DS":7608,"Ġocean":7609,"rot":7610,"ĠClinton":7611,"ĠXbox":7612,"iliar":7613,"Ġgay":7614,"Ġuniform":7615,"ĠMun":7616,"Ġskills":7617,"ĠBed":7618,"Ġnavig":7619,"ĠOrgan":7620,"Ġreveals":7621,"alo":7622,"ĠNevertheless":7623,"Ġspend":7624,"Ġchapter":7625,"ĠCategory":7626,"Ġpointed":7627,"Ġenh":7628,"Ġridge":7629,"text":7630,"Ġclim":7631,"ES":7632,"orous":7633,"ĠWing":7634,"Ġwatching":7635,"ĠStewart":7636,"Ġbon":7637,"Ġprevented":7638,"usic":7639,"ĠMuslim":7640,"Ġ05":7641,"Ġpreferred":7642,"lie":7643,"utt":7644,"ĠReal":7645,"rees":7646,"Ġpushed":7647,"Ġpull":7648,"Ġformat":7649,"icians":7650,"Ġlocomot":7651,"Ġfootage":7652,"Ġflew":7653,"Ġlanguages":7654,"ĠHeavy":7655,"Ġdifference":7656,"Ġopponents":7657,"Ġhappened":7658,"ĠTower":7659,"Ġformally":7660,"Ġthereafter":7661,"Ġdrums":7662,"Ġintent":7663,"Ġreportedly":7664,"Ġcheck":7665,"itter":7666,"Ġfacing":7667,"ĠBenn":7668,"Ġresign":7669,"Ġrelationships":7670,"Ġaccomp":7671,"ĠOrigin":7672,"Ġchain":7673,"Ġintense":7674,"ĠCarib":7675,"Ġthousand":7676,"ĠBulgar":7677,"ĠTurkish":7678,"Ġhanded":7679,"ĠSamuel":7680,"ĠExpress":7681,"oto":7682,"tty":7683,"Ġdevice":7684,"Ġnotably":7685,"ĠSarah":7686,"ski":7687,"Ġanimation":7688,"ĠRey":7689,"ĠLim":7690,"ogether":7691,"Ġfiring":7692,"ĠLennon":7693,"Ġvision":7694,"Ġinhabit":7695,"Ġexisted":7696,"Ġvisitors":7697,"ĠBird":7698,"idi":7699,"Ġsurrender":7700,"ĠAud":7701,"Ġgather":7702,"Ġemployees":7703,"ĠGreece":7704,"MA":7705,"ĠBaltimore":7706,"Ġbes":7707,"onies":7708,"Ġ170":7709,"Ġaccompany":7710,"ĠAustria":7711,"ĠQueens":7712,"mad":7713,"ĠAlbums":7714,"roc":7715,"bean":7716,"ĠHans":7717,"ĠArk":7718,"spec":7719,"Ġdeparted":7720,"Ġlinked":7721,"Ġhearing":7722,"Ġexposed":7723,"Ġparticipate":7724,"ds":7725,"Ġpoetry":7726,"Ġdialogue":7727,"stic":7728,"hatt":7729,"da":7730,"Ġextent":7731,"ois":7732,"Ġfil":7733,"ĠStock":7734,"Ġdetailed":7735,"Ġannounce":7736,"olis":7737,"ĠColorado":7738,"Ġsubstantial":7739,"yo":7740,"ican":7741,"Ġlearning":7742,"Ġbeach":7743,"Ġaudio":7744,"ĠCam":7745,"ĠRaw":7746,"Ġinstance":7747,"Ġuniverse":7748,"ĠLane":7749,"ropolitan":7750,"Ġrebell":7751,"Ġcruisers":7752,"Ġresidential":7753,"jo":7754,"unes":7755,"Ġimpressed":7756,"prise":7757,"ĠWriting":7758,"ĠMarshall":7759,"orage":7760,"ĠHorn":7761,"Ġvul":7762,"orial":7763,"Ġperiods":7764,"Ġavo":7765,"ĠInitially":7766,"endment":7767,"ĠCz":7768,"Ġske":7769,"ĠFoundation":7770,"Ġmart":7771,"Ġhuge":7772,"Ġplate":7773,"Ġpublisher":7774,"ullivan":7775,"ĠMalays":7776,"Ġutil":7777,"Ġhat":7778,"Ġtaught":7779,"Ġeasy":7780,"igen":7781,"ĠDave":7782,"Ġafternoon":7783,"Ġenthus":7784,"lock":7785,"ologists":7786,"Ġtempor":7787,"Ġstem":7788,"ĠFrederick":7789,"Ġterritories":7790,"Ġdriver":7791,"Ġimprison":7792,"Ġreviewers":7793,"Ġtesting":7794,"ribed":7795,"ĠErn":7796,"Ġvideos":7797,"boy":7798,"Ġ1928":7799,"ĠWrestling":7800,"opter":7801,"Ġhappy":7802,"Ġupd":7803,"Ġtests":7804,"viation":7805,"ĠBanks":7806,"ĠHaving":7807,"iami":7808,"ĠHorse":7809,"Ġstable":7810,"Ġteeth":7811,"Ġfeud":7812,"Ġreprodu":7813,"Ġsympt":7814,"Ġunderstand":7815,"Ġisolated":7816,"Ġca":7817,"roph":7818,"ogan":7819,"Ġnegotiations":7820,"Ġvessel":7821,"ĠSomerset":7822,"Ġdiameter":7823,"Ġinher":7824,"Ġagents":7825,"Ġsleep":7826,"otes":7827,"Ġpicked":7828,"ĠJess":7829,"atically":7830,"ĠAnna":7831,"Ġ1925":7832,"ĠBuck":7833,"Ġbridges":7834,"ĠKnow":7835,"ĠMario":7836,"Ġgoods":7837,"Ġencountered":7838,"cho":7839,"Ġdangerous":7840,"Ġjunior":7841,"Ġwithdrew":7842,"ĠRelease":7843,"Ġdiagn":7844,"Ġlob":7845,"Ġsimultane":7846,"roke":7847,"Ġaged":7848,"Ġfounder":7849,"Ġreun":7850,"ĠAnglo":7851,"Ġbehavi":7852,"Ġfactor":7853,"Ġnormally":7854,"Ġupgraded":7855,"sea":7856,"ĠGiants":7857,"Ġkeeping":7858,"Ġfur":7859,"ĠMiami":7860,"Ġspecimens":7861,"Ġwindow":7862,"borough":7863,"Ġtie":7864,"Ġpounds":7865,"Ġ1890":7866,"mission":7867,"ĠSeattle":7868,"Ġdeter":7869,"Ġmedium":7870,"Ġsatell":7871,"etime":7872,"Ġrelie":7873,"Ġfrequent":7874,"olas":7875,"Ġsure":7876,"Ġ1924":7877,"Ġcollaps":7878,"Ġethnic":7879,"bridge":7880,"Ġtoll":7881,"Ġmir":7882,"Ġdiet":7883,"idae":7884,"Ġpartly":7885,"ĠChampionships":7886,"ĠPlayer":7887,"ĠExt":7888,"Ġlowest":7889,"Ġcrisis":7890,"Ġprohib":7891,"Ġresear":7892,"Ġengineering":7893,"chen":7894,"ĠTrek":7895,"ĠCall":7896,"Ġapprec":7897,"ĠSoon":7898,"ĠAlab":7899,"Ġoutf":7900,"Ġtraveled":7901,"Ġvic":7902,"ĠCre":7903,"Ġwhereas":7904,"Ġorganizations":7905,"helm":7906,"iable":7907,"Ġproced":7908,"away":7909,"Ġdesigner":7910,"Ġped":7911,"Ġrarely":7912,"Ġlose":7913,"ĠOp":7914,"Ġrefers":7915,"Ġtone":7916,"amese":7917,"ĠHand":7918,"Ġdoesn":7919,"Ġturrets":7920,"usal":7921,"Ġtechnique":7922,"iece":7923,"brid":7924,"Ġinsc":7925,"ĠHuman":7926,"ĠTreaty":7927,"ĠIowa":7928,"gery":7929,"Ġvice":7930,"Ã©e":7931,"Ġorb":7932,"Ġax":7933,"igs":7934,"Ġspending":7935,"Ġfinale":7936,"Ġ07":7937,"Ġcriticised":7938,"Ġadvice":7939,"Ġpermission":7940,"Ġmaintenance":7941,"Ġlad":7942,"ĠML":7943,"Ġplatinum":7944,"ennis":7945,"Ġuncertain":7946,"Ġdifficulties":7947,"Ġphen":7948,"ila":7949,"xual":7950,"ygen":7951,"Ġcomplic":7952,"Ġpartially":7953,"Ġrestric":7954,"Ġpolicies":7955,"ĠAlabama":7956,"ls":7957,"Ġbypass":7958,"Ġpersonality":7959,"Ġagree":7960,"Ġverse":7961,"Ġmainstream":7962,"ĠForces":7963,"Ġcompete":7964,"Ġranking":7965,"Ġindicate":7966,"Ġliqu":7967,"Ġexcell":7968,"ĠDur":7969,"Ġproport":7970,"Ġrecordings":7971,"inction":7972,"ilst":7973,"uscript":7974,"ĠCaribbean":7975,"Ġunn":7976,"oked":7977,"Ġcomments":7978,"FC":7979,"Ġremove":7980,"Ġanticip":7981,"col":7982,"Ġfinals":7983,"ĠNapole":7984,"Ġmamm":7985,"ĠThen":7986,"Ġrefuge":7987,"ĠBuff":7988,"ĠMississ":7989,"Ġsafe":7990,"ĠLawrence":7991,"attered":7992,"Ġconcerts":7993,"Ġ1923":7994,"Ġwindows":7995,"ĠYanke":7996,"ĠCanal":7997,"Ġstrip":7998,"Ġseats":7999}